fbf1
02e7
fed1
004c
feea
00a8
fc07
0214
041e
0370
fe75
feac
fd44
fe0a
013c
00b3
ff5b
0244
fbc9
015f
fd22
fd1e
fea0
fe8d
ff73
fccf
fffe
02f7
0173
036f
01ae
0014
02e1
03d0
fe14
0517
04de
01d0
01c9
000e
fb81
005a
0320
fc3f
0043
fc5a
fc68
0116
fdfd
fdb0
02db
fc0e
0055
0183
016f
fe45
0118
ffec
02c3
05be
fbce
fd56
fc1d
001e
fdf4
fe3e
fdea
fa7a
fba5
04d7
02f4
ff78
0041
0418
03c5
01fa
fb56
0254
001e
fdf6
0177
01df
feab
038e
ff9b
fdaf
038b
fc6e
0361
0041
fafa
0072
0190
fd42
fe51
0324
01a5
fb33
fdcf
fe34
f97c
fde8
fd0f
00b2
fd0e
ff6b
0150
015d
02c9
000f
fd35
019c
fdb3
fe84
02a6
fcdf
002e
fe82
012b
fd51
023c
fc5d
0386
fc55
0255
028a
fba0
0436
00f3
01b7
039c
fecc
0176
fa0d
0505
ff2b
faf8
fce3
fe8e
024e
0093
03b4
0292
0120
006e
fee7
fce1
0110
0076
fdc2
fc6d
0030
fcfc
0019
fb05
01f6
fe77
0107
02c2
fbdb
0149
fd83
fc72
fc68
fc02
fe66
00bb
fc33
0252
fe3e
fff2
02ff
0280
f952
fdd7
03d3
0251
0306
ff98
ffe3
01ef
0133
040c
0429
fd2d
02c3
0281
ff1e
03d9
fdd2
fd61
fc3c
00c2
009c
00cc
011e
fe10
fbcc
0288
fe58
0276
0278
fd3f
fd81
007d
fa87
fea6
fb71
fd8d
fe55
fd76
0301
fdb7
03cf
0231
fe67
fbad
0203
0449
00bc
fe70
ffdf
03bd
0221
0330
facd
fd22
0337
0095
02f5
ffc1
03f2
fd52
0382
02b5
fff9
0239
0200
0488
fe7f
fe7b
ff6a
0010
fa91
feb9
00c1
fd78
ff86
fc49
fbe0
02f8
fccd
ffd9
fd5e
0269
fce9
fd4b
fec6
03b7
fb59
ffca
ffc7
023f
fdef
ffdd
00a3
01f3
fc90
0064
018c
fa7b
fe08
027d
042a
fdd9
0170
0242
02f7
fe01
0191
0056
0347
fb53
fa6c
0239
0163
00c0
ffe5
fc93
0060
008b
0169
0412
01a8
f9a1
02b0
fddd
fa4f
f992
01a0
0320
0268
fefd
ff26
ff5e
0339
ffe4
fcab
fead
fde7
f896
008f
020e
02c4
fb7e
0335
033f
fc8b
0028
02b2
