006f
ffad
0031
0032
00a1
0020
ff9a
00a8
00a2
ffee
0093
ffb1
ffbf
0023
0025
ffa4
0043
0046
0012
fffe
00ac
ffef
ff8c
0014
ffe6
fff9
002d
ffba
003a
003d
0054
0012
009b
0052
001c
ffdb
ffb3
ff9d
003b
fff4
0067
0024
ffa3
000d
0035
009a
ffca
0063
0087
0092
0015
0054
0050
0098
003e
0018
003a
003b
ffc5
0090
0066
ffb7
0016
009c
ff98
ffab
002c
007f
00a3
0004
ffc7
ff83
ff64
007e
0070
0178
00da
0166
0017
ffca
ff9d
ffb9
ffe3
ff9b
ffbb
ffb1
ffe0
002b
fff4
0034
ffc1
001f
000d
ff96
ff41
ffa0
ffab
fec4
ffae
ff74
fe61
ff7c
0109
0136
017d
01a1
00b1
010b
ffcd
ffbe
0092
0015
007a
0050
ffcf
0020
0032
0066
ff81
000c
0077
007e
ff5a
ffc0
ff2f
fefc
fe83
fe57
ffa0
ffed
00c4
0192
0136
015d
011a
01d0
00aa
0043
002c
001e
ffcf
ffa6
ffe2
ffa4
ffb7
ff6e
001d
0089
000b
005b
fecc
fe9c
feb6
feb2
ff2c
fe9f
ff07
ffda
0020
00f3
015e
009c
00e6
0094
00ba
005c
000c
ffc6
007b
ffba
ffd2
ff8a
0002
0061
000c
ffb7
00b2
ff86
ff0c
ff3c
fff0
fe88
fefe
ff83
ff4f
ff13
ffd3
00e2
0024
ffc5
0076
00b1
0108
0052
00e1
ffe1
ffa0
ffce
ffc2
0026
ff35
0036
fe84
0050
0045
015c
011c
ffe8
ff60
ff2f
ff84
ff2a
ff72
001a
ffc7
0052
ffe2
004c
00ff
0108
0101
00f1
006d
ffa7
0061
ff93
0021
ff8d
ff7f
ffc8
fee0
0044
00b4
0199
004e
ffab
ff15
fedd
ff3d
fede
ff4c
ff55
fefe
ff8c
0011
ff1d
ffc9
00ba
00d6
0189
0006
ffed
ffdd
ffe5
ffed
ff39
feee
fde8
feb1
ff5e
00c1
0091
ffad
ff7b
ff62
fe88
fea4
fed6
fe9d
fe9f
ff72
ffbc
ff77
fff2
0024
0118
01a2
016e
ffdf
0086
ffc5
0087
002f
002f
ff6d
fdc5
fdcd
ff50
fffe
0161
0051
0040
0086
0018
fff0
ff53
fe5e
fe7b
ffd5
001e
ff70
fff8
0094
010b
00d7
0079
ffed
0025
fffb
00a2
0030
ff65
ff2f
fec0
fe2b
ffea
0127
01cf
009d
008c
0212
0171
005b
ff9c
ff7f
fee2
0039
0024
ff66
ffc0
feeb
003f
003d
000f
0065
ffba
003a
ffd7
0060
ffe3
ff3c
fe26
ff90
0046
0046
00ea
01fd
01e5
01b3
017b
0086
002a
001e
004d
ff97
ff4b
00a4
ffe8
fede
fff8
ff86
0003
ff93
007c
0026
0003
0004
0003
fe9d
ff14
ff89
0021
005f
014b
0117
00b4
01cc
013c
01aa
016f
00ca
0025
ff3c
0124
0098
0000
fee6
ffc6
fe80
ff3d
ff2f
ff4f
006e
0075
007c
ffdc
ffbb
ff98
ff9d
fee7
0067
00e2
0029
0107
014d
006d
015a
00a1
00ec
0014
ff92
0012
008b
005f
ff57
fe6c
fecc
fe66
ffca
ffd6
0098
00aa
0035
ffd3
ff29
ff2d
febb
ff34
ffc4
0039
0026
00ba
00d4
00e4
01ae
ffeb
00c7
ff0e
ff95
fef5
ff4a
0042
004d
ff9e
fe25
fef5
ff35
0097
ffb5
ff90
00ad
ff4a
fffc
fe85
ff5a
fe48
ff7e
ffb9
ffc1
ffcb
00a0
0062
00c4
00bc
ffa1
fe80
fddd
fef9
ff65
000a
0018
fe94
fd6d
fe07
ff15
ff84
ffb1
ffd8
0025
ff9b
ffe4
ff2c
ff6e
ff68
ff5b
fee6
ff78
ff84
ff67
ff71
00a8
0052
ffff
feeb
ff45
fe65
ff80
fffe
007b
fe7b
fe4f
fe95
ff32
0014
0065
ffe5
fffd
0012
fff3
ffe3
0039
ff2d
ff6c
ffb4
ff0d
002e
001e
0142
00ce
005c
ffca
ff03
ff4a
feb7
fffe
ffc1
fe65
fdde
fe94
ff68
0035
007a
ffb6
006a
ff90
00ad
ffff
0064
fed3
ff70
ffa6
ff7a
ff51
003a
ffec
0080
00d9
ffff
ffc4
fff5
ffb0
0077
00b8
ff4d
fe77
fec8
ff24
fef1
ff6e
ffa3
001d
ffee
ffd5
0006
0031
ffeb
fed6
ff1a
ffd9
0009
ff1e
fff2
ff82
0082
00c0
0149
ff99
00a4
002d
00ec
0084
fedc
ff18
ff38
ff3c
ff0b
ffd7
002e
ffd4
ffc4
ff97
003c
0041
ffdc
ff7b
ff65
ffe8
0018
000c
00b5
0035
0062
00d2
0097
fffb
0076
00d9
ffe7
008d
ffa8
feea
fed4
fed0
002c
ff8d
ffd5
00ab
001d
008e
ffae
0062
0012
ff51
ff7c
fedb
ffff
ffd3
0057
0070
0046
0112
0018
007d
015d
ffbd
00bb
fef1
feed
fed2
ff61
ffed
ffda
0062
ffe9
ffc0
0081
00ae
0029
ff57
00a8
0002
ffb8
0026
00ae
0050
008a
00f9
00d2
00ce
0081
0119
ffde
ff3e
ff6b
fe78
feca
ff39
ff69
fff8
0029
0014
002c
ff99
ffe8
006b
ff9f
002b
0056
ffd4
ff48
ffec
00de
012d
0143
0136
0034
0011
00cc
002d
ff1a
ff75
ff81
fff2
0002
ffcd
005f
007c
0069
0026
ff8d
0062
ffb3
006b
0079
ffaf
ff2c
ffdc
ffdb
0016
ff96
ffea
0031
00a0
ffcb
ff28
ff0d
fe2c
ff0b
ffe6
fffd
ffe3
0001
0089
00e4
000d
0032
0003
0050
0017
0005
0065
fff7
003a
ff9a
ffd2
004b
fff7
ff7f
feb4
ff3b
ff6f
feac
fddd
ff18
ff86
fe7f
ffc9
ff07
ffa6
ff91
ffa3
ffbf
00a7
0031
ffcc
0093
008e
007c
ffd8
0069
ffed
ffc4
0055
001d
0004
ffd9
ffe8
fffd
0064
0043
ffc7
fff3
0086
008b
0056
0043
0009
006d
ffb3
0071
0083
ff96
006a
ff9c
ff85
ffdf
ffc8
ffe8
ff56
ff45
0029
ffef
0025
ffb9
ff5d
ff66
fff9
ff36
ffca
002c
001a
0012
ffd1
ffff
ff67
001f
fff4
0030
fff6
ff4e
ff85
ffbe
ff41
ff65
0002
003c
0016
ff46
ff3d
ffee
ff71
ff2a
fefe
ff08
feb2
ffb7
ffc4
ffd9
ff04
ff96
fee5
ff71
ff08
ff20
000d
ffb3
fff9
0031
ffdb
ff6a
ff87
004b
ff59
0022
ff4b
fff9
ffd0
ff85
ff03
ff95
fe90
fe1d
fe3e
fe20
fef2
fedd
fe52
fea8
feac
fe58
fe42
fe4c
fe3f
ff80
ffe3
ff61
0050
0029
0038
ff5b
fff6
ff45
ff30
ff74
ff20
ff42
fe72
fe99
ff1b
fe58
fe8e
fd45
fd63
fe0d
fd37
fd93
fe31
fdd0
fd0f
fcd7
fe20
fd84
fefe
fff6
ff4a
ff6a
ff8c
ffdf
ffdf
ffe0
0025
ff45
ff54
feba
fe2b
fe09
fdff
feba
ff68
fec6
fd84
fd43
fd16
fd19
fec4
fe0e
fde8
fde4
fede
fe5a
ffa2
fff9
ffc4
001f
ff54
ff69
004c
0030
ff46
ff58
feed
ff24
fe5f
fd5c
fd64
fe35
fef3
fe86
fe67
fd92
fea4
fe56
fe97
fed5
ff85
ff0f
00aa
ff8d
fecd
feaa
fed9
ffc0
ff53
ffbf
ff30
000a
fefe
fed8
fdd9
fece
fd1f
fdeb
fe3a
fdca
ff8a
0032
ffa0
ff4e
ff98
ff47
005d
ffbc
ffad
ffe7
006e
ff9c
fef1
fe46
0087
ff7b
ffb0
ff40
ff64
0027
ff2d
fe90
fdf2
fde4
fea8
ff51
ff4c
fefc
00cc
00db
ffe6
fede
ffb4
ff40
fed2
ffd9
0052
00d5
015c
00c2
fe71
fe33
fff2
003d
fffa
ff88
000f
ff39
fde8
fdcf
fdeb
fd4d
fe90
ff86
ff3d
0040
0055
001b
ff7c
ff3d
ff75
fffe
003c
00df
0117
00b7
012a
00b6
0091
000c
000a
ff39
ffd4
ff60
ff71
ffeb
fe68
fd15
fe64
fe0d
ff45
ffcc
0060
005f
ffed
0141
fffa
00a5
0050
0255
02c8
0244
00f6
002e
0127
002c
000c
ff2f
ffe4
ff82
ff9c
ff6d
ffa4
002e
fdd4
fd4f
ff17
ff54
0007
00a6
0112
002c
0111
00db
00f7
01d1
01c1
00a1
01ce
01f4
0120
009b
ff43
ff5d
0051
01a8
00c1
0050
ffbe
ffac
ff40
ffb5
fe09
fe71
ff97
0036
008e
ff72
ffd9
ff54
ff2a
0011
ffce
0068
ff46
008e
00a6
009e
ff3e
001b
0011
002b
ffd0
0114
0045
ff8c
ffea
ff53
ff3b
ff8f
ff11
fecd
005e
00c0
0149
ff69
0011
ff70
ffd2
ff7b
00a4
ffe1
ff42
ff8d
fe99
ff32
feef
fe77
ff11
fe8c
ff12
00d4
018e
ff78
ff86
0033
ff38
ffa4
008c
0005
003a
0296
0138
0067
ffd4
ff7a
0083
006f
0101
ff89
ff08
fff8
fed7
fd3f
fe16
fee5
fe48
fd68
ff6f
00d7
00ca
ffb1
ffa8
0035
0032
006b
012f
0110
0133
0171
010c
0185
00c3
ffdc
fff0
fff9
feff
ffef
0102
00f6
004e
febb
ff2a
fe58
fee5
fedc
ffe1
007c
002b
ff42
0030
ff9f
fffa
ffdc
0274
02af
033d
0270
0350
0202
016e
ffe1
0071
fecf
febf
ffd0
0162
00f0
002e
ff03
fec1
ff3c
fe8e
fe4e
ffc1
ff2c
0033
0001
0036
ffe3
ff56
0054
019a
0227
0211
01e9
02bb
017d
014f
ffff
004b
000e
ff9a
fff5
0008
ffab
ff16
ff3c
008b
00a9
ff47
ff28
fe79
ff43
00b3
0017
ffb3
ff4d
ffac
ffc6
006e
016d
0204
0216
021f
02b9
0165
0125
0162
00db
0083
013f
005a
ff2a
ff5a
0021
0059
0057
ffb6
feb3
fe91
000e
007e
ff4f
ff34
0038
0000
005a
ffc2
0141
00fc
0074
0129
010a
00e7
01b0
0185
00f2
015d
0064
fe74
fef3
fef2
ffb9
0007
ff43
ffbe
0117
ff00
004d
ffd9
002d
ff69
ffdb
ffe5
0036
ffdc
007e
ff40
ff9f
ff50
fee0
ff6d
feb3
ff4d
ffaa
ff9b
ff6b
ff7e
fe3b
ff9d
0056
fffd
fe7f
fec0
0186
0077
0104
ffaf
ffe7
ff86
ffed
ff54
ff47
ffdd
ffbb
fee9
fcd6
fc82
fe15
fc87
fd18
fcf3
fe32
fe50
fe30
003d
ff31
ff52
0005
0094
fef1
ff3e
0025
01be
013b
0042
ff51
ff6b
ff9c
ff78
ff2c
ff05
ff93
fe73
fd82
fd36
fcb0
fc6f
fcae
fc47
fcd3
fd24
feac
ffac
fe6c
ffba
0015
00ef
ffe8
ff5a
00b9
023a
00b4
ff68
ff4f
0013
ff3b
ffde
fff7
ff61
feec
fec8
fe01
fe9b
fdb7
fd88
fd2e
fd91
fd1d
fe40
fe12
fe06
ff25
ffc8
fec8
ffe7
0076
ffb7
0165
0227
0037
0046
fff5
0041
0029
ff91
ff54
ff80
fff8
ff4e
fedf
fec9
fe69
fe49
fdeb
fe85
fea2
ff95
fef5
ff3a
fe81
fe1f
fe91
0056
ff81
00cc
00ed
0076
ffde
0051
fff8
ffcd
ff9b
0049
0020
ff49
000e
ff1f
ff25
fed1
fee8
ff20
fe5e
fe98
fdba
fe55
fe55
fe2d
ff82
ffe5
00d4
00be
0117
01c1
00dd
004e
ff65
ff47
ffd3
0028
ff8e
ff79
ffca
ff80
0070
004f
003c
ff8e
ff50
fef7
fee1
fe2f
ff58
ffbe
ffad
0100
0033
00ec
000e
0091
013b
006b
00cc
0029
0044
0015
ffc4
ff59
ff3e
ff52
0047
004e
0038
00ad
ffdf
0054
0050
013c
0175
0170
00a0
0237
01cf
00bc
0154
ffe8
ff88
00b0
00c5
002e
ff4a
0050
ff8f
ff8a
0018
ff71
0027
003a
ffb6
ffbd
ff48
ff61
ffd8
003c
ffde
0044
0031
ffb6
0010
0071
fff9
0053
ffad
0010
0006
ffb5
ffa3
ff59
ff99
ffac
0045
004a
ff91
0012
ff43
ffbd
002f
ffdc
ff8b
fffb
ffe0
ff2a
ff8a
ff4f
ffcb
ffef
003e
ff50
ff74
0029
002a
ffbf
fffb
ff6b
ffa7
fffc
ff47
ff5a
0017
ff2b
004c
ff81
ff3e
ff63
004b
0000
0013
002f
fffd
ffd5
ffa1
0007
ffeb
ff65
ff6b
0035
ffca
0034
ffae
ffab
ffb1
ff67
ffa5
ff94
ffb2
ff4b
ff88
ffac
ffa5
fff8
ff70
ff7f
ffb4
ff91
ff51
ff6a
ff34
ff3b
ff58
ff19
ff77
fea7
ff54
ff4b
ff56
ffd3
ffb1
ffde
002d
ff9a
ff8a
ffc4
ff81
ffdd
ff80
ffe0
ffcd
ff41
ffb5
ffae
ffbf
004d
fff4
003b
0031
ffc5
ffbd
ff27
ffa9
ff71
ff52
ff92
0053
0033
ffab
00f5
0016
ff71
ff8b
ffdf
ff32
ff9d
0058
ff80
fff5
ff41
ffc9
ff92
ffeb
0058
ffad
004e
ffbe
004f
0127
00d2
009a
012a
0083
005c
01c2
0150
01c2
0201
0079
ffea
ff4a
ffea
ff56
ffea
0053
ffbe
ffbd
ffb5
ff9f
0011
0010
ffd7
00b9
010f
008c
ff4b
ff69
0013
00bb
009a
0029
ffc3
0030
0206
0269
01b1
01ac
0161
0079
002b
ff35
0004
003e
0041
ffe2
ff73
ffc6
ffd1
fef0
ff3a
ffc7
0030
000d
003c
005f
0095
0009
ff5b
0088
008b
00c9
005e
007b
00c9
005c
0013
ff38
ff77
003c
00a5
0073
ffa0
0008
fff9
ff4e
ffad
fe8f
ff60
0019
0016
ff41
010c
00a0
ffce
005a
fff4
001c
000a
0085
ff97
fec4
ffd8
ffd3
ff84
ff73
ff7c
ffac
0097
0137
ff87
fffe
ff9a
ff62
ff88
ff92
ff7b
ff9e
004d
0049
00a3
00b7
0075
ffb0
ffd2
ff8b
ff11
ff7c
ffba
fe90
ffdc
0062
0067
ff2b
ff52
ffb5
0036
01d4
0073
ff69
ff59
ff4e
0018
ffa9
fea5
fee0
ffe5
00b1
01f8
00ac
00fb
0069
ff2e
ff2b
fddc
fe3a
fed0
ff0b
ffb6
00d1
0027
00ef
0063
004c
0148
01ea
003b
ff56
0022
ffb0
ff0e
fefb
fe98
fefe
0007
0143
0223
0018
0010
000d
00c4
feaa
fe3b
fe1a
ffd8
0029
00da
015a
00d4
012a
00ff
01a1
0223
016e
0084
ffb6
ffc5
ff1e
ff14
feba
fe99
fe70
ff3b
ffc2
0063
ffdd
0008
0005
006d
00c1
005e
004e
0102
0109
0255
00da
00e2
00cc
fe89
ff24
00ec
00e4
0020
fffd
ff3a
ffff
ffa3
feb2
fe53
fe6b
ff85
ffc2
ff87
ffa9
00ac
016b
0193
023f
01cd
015f
00c4
018b
017f
0073
ff3e
fed3
fdff
fdd2
fef5
ffab
ffa8
ff91
ffd3
ffd1
ff34
ff28
feaa
fdec
ff8b
ffe7
ffc0
ffd9
ff8d
0126
01dd
0222
027f
0190
0088
ffe2
ff3b
ff37
fe3d
fd91
fd4d
ff0d
ff4c
ff30
0025
ffef
ffaa
0045
ffe3
ff5b
fe68
fdc6
0010
0036
ffd8
ff25
fee7
ffe1
0058
0200
0272
0188
0079
feeb
fe20
fcd5
fd45
fdc0
fe65
ff36
ff7f
ffe0
ffb9
ff59
ff55
ff6e
0020
ff2e
ff6a
fe02
ff15
fee2
fe3e
fe3c
fe21
ff30
00aa
0203
01af
00a3
ffff
fe01
fd78
fe90
fe6d
ff6e
ff81
007e
013f
ff8b
0034
ffd2
0000
004d
0000
0053
ff72
fe34
ff80
fede
fdfe
fd7e
fd3b
fe4a
00b2
0037
0069
ffb7
fee3
fe07
ff73
fecb
fead
ffcb
00ab
01cf
011e
ffa5
ff69
fff3
ffd1
ff36
006c
fffb
009e
ffcf
00e8
0077
fe92
fe6c
fce8
fcc8
fd86
fe75
ff28
ff34
feae
ff57
ff28
ffec
ffb8
ff8c
0039
014e
fefe
fedf
ffc2
0015
0000
0022
ff85
0129
0143
0185
01d8
011d
ff86
fdb7
fe06
fdb7
fc84
fd8d
feee
feac
004e
0043
ff7d
0065
ff74
0080
0091
0093
0069
feef
ffbe
ff41
0016
001f
ffde
00c0
01d1
0244
0294
0125
ffbd
ff2c
ff0f
fdcf
fcc6
fde1
fdf2
ff4d
00a0
00ca
0076
fff5
010e
0115
0102
00ef
ff43
ff7e
ff18
ff2a
ff6b
0017
ffe8
ffd4
0187
023e
021b
0107
ffe6
ffa4
fee6
fef0
fdaa
ff3f
ff3d
ff74
00ed
00af
0157
005a
012e
010e
0125
0076
ff6a
ffa6
ff8a
ff94
000e
ffb8
ffda
0027
018f
00a6
013e
00fe
ffe3
0071
0006
ffd2
ff97
ffcd
005c
00cf
00db
0208
00a6
00c4
01fa
0169
0171
ff79
ff80
ff87
ff31
0004
ff36
ff69
ff94
ffab
00db
ff9f
ffe2
ff93
0064
0032
0032
00eb
0072
0113
0023
002d
0120
01ba
011d
0174
0167
011b
00b2
ffa3
ff33
ff3b
ff31
ff45
004c
0025
ff6c
0098
0041
ffce
ff27
fff8
00b1
0081
0195
01e2
00fc
0158
015c
00da
0155
00ac
00e6
00da
01c1
014a
00c6
ffb4
ffc0
ff8c
0027
004b
0008
ffc1
ff9b
005b
ffd3
ff5e
ff4b
ffe9
0141
0155
0183
0181
0275
0142
018c
00c8
018c
0025
00b2
0051
0009
0068
00e3
007d
ff57
ff6a
ff93
0005
ff30
ff91
ffcf
ff5b
ff1b
feed
00ab
0074
006d
007e
0146
004b
0103
0116
00d6
0000
0098
00b8
ff63
0009
ffcc
fff2
005c
ffe3
ff71
ff8e
0039
004c
001e
004d
ff77
ff6e
ffc3
ff14
ff2c
ff7a
fec3
ffc8
0033
0086
0053
ff09
fec2
ff73
ff82
007f
ff3b
fe75
ff83
000c
fef5
ffa7
ffb7
ff39
ff64
ff81
ffa4
ffde
ff44
ff97
ff48
0049
ff78
ff8c
ff59
ff19
ffc4
0007
ff96
ffad
ffd5
ffad
ffbe
fefb
ff40
ff7e
ff1c
ff08
ffb2
ff41
0012
ffa2
ffb6
002e
ff81
ffc4
0024
0044
ffd3
0011
ffd4
ff8a
ff3d
0006
ffa8
ff7f
004e
ffa4
ff88
ff71
ff69
ff8f
ff8e
ff4b
0038
fff7
0036
ff9e
fff5
0000
ffe9
ff82
ffc3
004b
ffe4
ff90
ffc1
ff82
ffbd
fffa
003e
ff63
ff3b
ff97
ff8e
ffa6
ff4d
0024
004d
002c
ffde
ff44
fff5
ff44
ffc7
ffd7
ff63
ffac
ffda
ff9b
ff78
ff72
ff72
ff4f
001e
ff41
0004
fff8
ffae
0054
005e
ff8d
ff68
ff41
ffca
fffb
0044
ff58
002a
ff7d
ff47
001a
002e
ff3f
ff54
ff92
0011
fff5
0034
ffcc
ff8f
ffed
ff39
ffe0
ffc9
001f
ffa7
ff93
ff80
0076
ffca
00b5
007e
ffab
002d
ff99
0049
005d
0003
feb4
ffc2
ff64
fff7
ff82
ff84
000b
fffc
ff8b
ff45
ff78
ffb0
ff6c
002a
ff9e
00aa
fffc
ff9a
ff9b
ff2c
ff4d
ffca
006e
ff4f
ff9e
ffc5
ff75
ffb4
ffbc
ff25
ff1c
fed3
ff40
ffea
ff56
ffb1
ffde
ff84
ff72
ff54
ffd0
ffe9
00ae
01cd
0177
01e2
00e8
00d7
016c
0100
ffb4
0037
ff50
0005
ffa2
0011
0075
ff9c
008a
ff9d
ff25
ffc7
ff36
ffea
fff0
0034
0041
0067
00bc
0141
0244
013f
01ff
0240
0205
0213
0258
0274
0265
01bf
0123
015f
0110
00e1
0138
00f9
ff74
ff44
ff86
ffd4
ffc1
ff2b
002a
ffec
0007
0014
001f
0122
01ea
0204
0204
0296
0235
01df
0294
02de
0278
0261
01e0
014b
015a
0241
0119
ff6b
fe4d
ff0d
fe7e
ff6a
ffb8
ffc4
ffea
ffc5
0047
fef2
ff3f
febb
ffda
00db
01a1
00d3
01af
01e1
0190
02db
026f
00f2
001f
00cc
0023
00af
ffad
ff8e
febd
fdde
fe54
ff0b
ff85
ffd0
005b
0018
0013
ffc0
ff6c
fed1
00a6
ffea
00bc
0021
002c
0080
001b
0071
ff5d
fed1
ff3b
fff0
ffd6
fef5
fe71
fef0
fe55
fe53
fe9d
fefa
001a
ffb4
ff4d
ff8b
0033
fe87
ff4c
0060
ff05
ff5d
0008
ffe8
ff1c
fd53
fd3c
fb1c
fce9
fef9
ff9b
ff71
fe59
fe6c
ff5c
ff53
fde6
fdc9
ff8a
ff8d
ff86
ff8a
ff54
ffd7
ff52
fef4
fe80
ff73
ff7f
ff61
ff89
ffc9
feb5
fbca
fa2f
f99d
fd14
fe60
ff80
ffcb
fe8b
fecf
feb3
000f
0017
feb5
ff01
ffd9
ff50
ffac
ffb0
ffa9
ff4b
feb1
fe93
ffc5
ff3a
ffdd
ff4d
ff54
fd51
faf6
fa60
fcf4
fe63
feda
ff8e
ffe1
fe2e
fe9e
ff3c
0014
00b7
ff7e
ffb1
001f
ffa8
ff8a
000b
004d
ff2d
feb9
fdf8
ff49
ff4d
fef4
ff5c
ff2b
fddb
fd49
fda2
0004
ff7b
ff68
ff43
fe89
feb2
ff7d
ffc9
ff71
0015
ff26
fecd
ff44
ffc5
002a
0049
0003
ff4d
ffa4
fde0
fe97
ffa4
ff14
ffd3
ffbd
fe47
fe8a
0014
0016
0034
ff55
ff0f
ffd3
fea9
003e
007a
ff69
fedc
fff0
ff14
ff2d
ffff
ffca
0021
ff3b
ff22
feb8
fee3
ffd9
004c
0036
ff78
ff79
fee5
fe81
ff05
fe84
ffdd
fe6f
fe7e
ff49
fec9
00ab
01d5
ff72
ff39
006d
ff6f
ff06
003f
0012
fffd
ff35
ff6b
fe5f
fea3
ff15
007b
ffef
ff48
ff5d
ff62
ff04
fe4b
fe50
fe3c
fe1b
fe4a
feb1
ffcf
ffdc
0062
ff91
fe42
ff8a
ffee
ffed
002c
fff4
ff88
fef4
ffa2
fea7
ff95
fed5
ffb7
fffb
ffe8
ffcf
ff2f
ffa4
ff0b
fde6
fe62
fce2
fe20
ff02
009f
ffac
fefe
ff9a
ff2c
ffb2
002a
0000
ff61
ff9d
0027
ff60
ff0e
fef8
fe79
fe8f
ffac
ff25
ffc1
ff7d
ff5f
fe13
fd98
fd67
fdd6
fe1b
ff84
003c
0134
00c0
ff3d
ffc1
ff72
fee6
0028
0002
ffe2
ff88
ff32
ff79
ff3b
feab
fe40
fe40
ff00
ff01
fee1
fec6
ff7f
fedb
fd2c
fdb6
ff2c
ff5f
ffbf
005d
0020
015a
0004
ffee
fec7
ff9a
003c
004a
ff55
ff98
ffc1
ff76
ffa7
fec2
ff47
fde9
ff08
ff02
fea6
ff23
ff57
ffe5
ff3e
0042
0101
00ec
00ab
ff21
ffbe
ff92
0000
ff48
feaf
ff7c
0037
ffb5
000a
ff69
ffb2
ffb1
0019
ff67
ff1b
fe3d
fe2c
fee4
ff9f
fffa
007f
01b0
016c
01f9
0257
025e
003e
ff87
006e
0072
ff01
feda
0086
0076
0035
ffdd
ffe1
ff46
ffdf
ffa7
ff36
ffd4
0021
0042
fed9
003b
00e5
00b5
0139
00f4
0146
01d4
01da
0220
00b5
0058
006b
ffa4
fee5
ff7d
002c
ff9f
ffdd
0039
001a
ffdf
000b
ff79
fffe
0066
00ae
01f2
0129
0080
00ec
0113
0191
0166
005d
00fa
012d
001f
00a6
ff34
003a
0057
feb6
ffc2
fedb
ffbf
ff40
ffb9
fffe
004c
ffab
ff25
ffa6
008a
0105
027f
02bb
022b
015d
0172
0074
012e
0082
0001
fff4
fe90
010f
002b
00ae
0084
005e
ff82
ffde
ff6a
0045
ff35
ff74
ff9d
0030
ffe7
000c
00a5
005a
00ca
0120
02ba
0298
0124
00a6
0166
ff8b
fed6
ff5c
ffa3
00b9
0080
00aa
000a
0064
0099
ff77
ffc0
0049
ffc9
0040
ffaf
0019
ff49
002f
ff44
feee
ffcd
ffce
0009
00f3
ffaf
ffea
ffba
009c
0117
0157
00d3
002f
0116
00a9
00af
0072
002e
0010
ff5d
ff40
fff3
ffdc
ffe2
003b
0029
0012
ff7d
ff53
0034
ff96
ff44
005d
ff92
0000
0017
ffd2
0032
ffbe
0060
ff96
ffb3
fff3
ffd8
003f
ff8b
0001
fff6
ffdd
003e
ff69
0020
0096
ffd6
0011
008c
ffd4
ffa9
003f
009b
0012
0059
0082
0057
0054
0012
0052
ffd8
0024
00be
006c
fffc
00a2
ffd9
0096
ffdb
ffd7
000c
00bc
0028
ffb9
00bf
ffda
002c
00c1
ffaf
ff9f
0043
0008
00c2
fff8
0023
00d3
00c7
006f
0010
fff0
00be
0050
0042
0070
fff2
001e
0044
0030
ffc0
ffa9
00a3
0032
ffc4
0088
00ab
ffbc
ffaa
ffb2
003b
0087
fffc
ffc7
00a6
ffeb
ffb2
003c
0041
fff5
0040
00af
004e
009c
0075
008a
ffa1
ffa4
0020
00b8
00a1
0037
006d
ffd1
ffee
00bb
ffd8
007f
ff8c
fef0
ff66
ff91
ffa1
ff14
ff14
0019
ff99
ffa7
009a
008d
0097
0156
011e
0082
00b2
0048
008a
00ba
ffd5
ffb0
0095
00a9
005c
ffa6
ff9b
ff29
feef
fde3
feb7
fec8
ff36
ff72
ff19
ffd6
0013
ff58
ff52
0054
00b6
011d
0108
01d5
ffff
fffa
ffad
0039
0078
007d
00b9
0068
ffdb
006f
fff4
ff52
feb5
feed
ffc3
ff8c
001c
ffb4
ff3e
fff9
ff0e
00a1
0076
0053
00d6
ffe4
ff57
000c
003a
00b4
007c
006e
0036
ffdc
006c
0088
fff5
0017
ffe3
ff72
ffda
fede
feb1
fffd
ffcb
ff97
0064
008e
ffdb
0153
010d
0093
0121
0059
001f
0079
00f1
001a
008f
ffd3
0068
00a2
002f
0019
ff45
fe92
fddb
fe71
fe8f
0034
ffd3
ffee
ffbb
0066
00ca
0112
00da
0098
0089
00fc
01a2
0106
0088
00ac
00f5
ffe8
ffb2
0033
ffdd
0063
006b
ffa1
ff6c
fed9
fe95
fe83
fedb
0074
ff4b
002d
0072
005d
0092
00d0
fff1
0080
0094
ff7c
ffae
00b9
ff51
feaa
004c
001f
ffd0
008d
ffdd
005d
ffc3
fee7
fee8
fdaf
fe29
fdb9
ff98
ffb4
ff76
ffd8
ff98
008b
ffec
0035
feea
ffab
ffc0
0010
ffa2
ffad
ffe8
ff4a
006e
0064
0077
001d
ffe0
0050
0013
ff03
ff6c
fe96
fd66
fd54
fe51
ff53
0022
ffbe
000d
003c
0019
feca
feff
ffbc
ff52
ffa5
004f
ffcf
0062
0094
007a
ff5a
ff59
ffb5
007b
0046
001c
ff89
fee0
fea7
fe5f
fe08
ff54
000c
00fb
00ca
0055
0109
0154
ff18
ffb4
0095
0130
ff6f
ffc4
0002
0046
0078
ffe4
ff5c
ffd5
ff9a
ffd2
0070
ffbe
ffef
ff17
fe63
fe02
feaa
ff22
010a
01b0
01ef
0121
00fe
0093
00cb
00ca
01b2
0164
fff5
0020
00cb
0053
00bb
ff77
ff0e
0013
ff84
ffdc
00af
0033
ff74
ff81
fe41
fd04
fe0a
002c
028b
01b4
00d4
0045
0086
0140
0130
00f4
012b
0064
ffff
fff6
fffb
ffda
ff66
fdf2
fe07
fecc
ff9a
0038
0031
0002
ffaf
ff4f
fe09
fc54
fd9f
007c
01b5
01bc
00b4
009c
00e1
0053
0050
0036
0084
ffa3
ffe6
ffd2
ff63
ff44
fda7
fdf9
ff25
ffa3
005a
ffc9
005d
ffe7
0019
ff1e
fd4e
fcaa
fe6d
fee9
fff0
016d
0054
0152
00c5
008c
ffcd
0118
0129
0036
ff36
ff60
ff6e
ff06
fe93
fdde
ff2a
fee1
0046
0032
00a6
ffc2
ff15
fffa
fea3
fd73
fd34
ff34
ff06
ffc3
004f
0097
0056
ff9d
0004
015f
0047
ffaa
ff59
ff11
fd92
fd28
fd83
fe5a
fdfe
fe64
004b
ffe0
fff8
002e
fefd
feeb
fea6
fe3b
fe73
fe3a
ff52
ffe9
ffa8
00ed
ff9e
0053
00d9
0166
0120
005c
ff38
fe40
fda8
fe36
ff74
fec9
fed5
ff4d
003a
ffed
0090
0079
ff56
fec5
fed1
fecc
fef1
fed9
ff23
febe
00a4
00d3
0118
00c5
01c5
00c1
00a7
0078
fec9
fe19
fd2a
fcc5
fdf3
fe72
ffd2
0000
0061
ffa9
0024
003d
ff79
ffb0
00c1
ff9b
ff78
ff58
fede
ff63
0056
004a
0032
00fa
00a3
00b1
00a7
000f
fe5c
fc69
fd42
fd69
fda6
ff89
ffa6
0051
ffc6
001a
00c8
0053
ff43
ff16
004a
0078
ffe3
ff6e
fe79
ffef
0033
00a7
0013
00ac
0010
00b1
ffef
ffd5
fdf7
fc8c
fdb0
fecb
ff19
ff98
ffc9
ffc1
00c0
000b
ffb7
005a
ff4d
ff54
0035
0036
0016
0062
ffea
ff37
ffd6
0058
003f
ffa9
ffcc
fef8
feff
fe93
fba8
fbd5
fcc4
fec6
ff85
ff8c
ffba
0009
009c
fffc
ffc0
ffde
ff5d
ff8f
ffb2
0073
00ed
00bc
ffce
00e2
0031
00cb
0130
00d7
0090
ff33
fed8
fd8d
fcbb
fc47
fce9
fe9f
ffc4
fffb
0091
0064
ffe1
0008
00ab
0040
0014
ffb7
ff63
002a
006b
016f
ffd7
0045
0084
0044
00de
0079
ffaa
fec8
fe8f
fe27
fdba
fdc3
fdca
ff00
ffda
0028
ffa2
0057
0057
ffdc
00b1
fffa
ffb6
ffd3
0124
ffeb
0120
00c6
0025
00fe
007e
00c8
014e
0062
0086
ffda
fea4
fe0f
fdd5
fe68
ff32
0028
0074
0019
ffb7
ffeb
ffeb
fff9
00c0
004c
ffd9
fff6
0030
ffc3
012b
014d
0105
00c5
0045
0061
004d
0085
001c
0049
ff9e
001f
002a
0088
000d
004a
fffe
000e
00aa
0018
fff1
00aa
0005
ffb5
ffaf
00cf
00f1
017b
0068
0078
013a
00a6
00c9
015f
00af
01ba
015c
009a
011d
0109
ffb5
009f
004f
0011
00be
00bd
ffda
00c2
ffff
0046
0019
00a2
ffc3
009a
003d
fff2
00b8
00be
009f
0081
ffb2
0052
007f
0098
fff7
ffc8
00b9
0067
ffcc
ffff
000d
0083
00ac
00ad
ffc2
0062
0069
ffc1
0033
ff52
ff50
ffaa
001f
ffdc
ffda
ffb4
ff5c
0002
ffcd
ff4b
0019
ffd8
003d
ff87
ffef
ff48
0041
0027
fff4
0040
ff56
002a
000a
ff8e
fffa
ffac
ffa7
0039
ff6c
ff85
003d
fff6
ff63
0000
002c
ff58
ffd1
ff6b
fff5
0005
ff7d
ff94
ffc3
ffe7
0009
ffae
ff6a
ffc9
ff93
ff9a
0000
0033
0015
ff47
ffb3
ffd4
ff8f
ff93
0002
ff3f
ffba
ff63
ff1f
ff44
feef
001e
ffea
ffe2
fed7
ffac
0032
ff80
0026
ffae
000a
004b
ffc6
ff86
fffe
fff4
0014
004d
ff7c
ffcf
000a
ffc6
ffc9
ffa1
ffb7
ff65
ff56
ff5a
ff69
ffd3
ff39
ffa3
ffd5
ffc0
ffcc
00fe
00c4
00a3
00e2
005e
ffcc
ffe0
ffc6
ff69
ff90
ff81
ff89
ffe0
0012
0027
ff6f
ff7c
ff30
fe54
fe87
ff1c
ffaf
ffd4
ff9e
0038
0063
0075
0005
0024
ff7e
008a
0184
0105
0102
0082
005e
fffa
ffe6
ff5c
0034
ffd8
0019
febe
fec3
fe4a
ff84
ff14
ff72
ff8b
ffb1
ffca
006b
0032
ff9a
ff42
ff85
fefd
ffbe
0067
00ae
0003
0078
010d
0085
ff5a
0026
ff84
003f
ffdf
fee2
ff0f
ff8b
fe9f
fe77
ff4c
fff3
ff25
ffee
003c
ffc5
0056
0066
ffa0
014d
009c
0189
01c1
013b
0126
007d
012c
00cf
0069
ffb3
ffa5
ffe5
ffe2
ff1a
fe41
fdd8
fe77
ff7b
ffeb
0005
0016
00b7
0044
00c0
ffcb
0047
0088
00af
01e7
00e5
01ed
016e
0069
0176
005d
0085
ffe4
ff76
003b
ffeb
ff8f
ffa5
febd
fe1f
fe74
ff3a
0054
0152
000f
00dc
006b
0016
0011
0072
fff1
0055
01b8
010f
0135
0147
009d
0193
020a
010d
0084
ff39
ffc7
ff4d
ff40
0000
ffd0
feae
fee6
ff99
0076
0097
0030
0157
0064
006b
ffab
0000
ffdc
ffc3
ffb3
ffb5
00b3
0132
0116
0047
0240
018a
ffa4
0037
ff63
001f
004c
0021
fffd
fe42
ff2a
ff61
00f8
0087
00c5
00f7
007f
ffd7
003b
ffc6
ff40
fe62
fffb
ffe5
ffb2
ffd2
0041
00d7
01ed
012f
fff1
ff3c
0034
ff9e
ffaa
007e
006e
ff7a
ff82
009f
ff84
002d
00ad
0028
0076
0092
00f0
0014
ffa5
0025
ffe6
ff32
0001
ff7c
ffda
00cf
01fa
0082
0046
ffd8
0022
ff92
fff9
fffa
00b2
ffa1
ffd7
0049
0035
ffa9
ff52
0007
ff85
0037
008f
00b5
004f
0107
0126
ff24
fef6
ff62
ff40
ffd7
ff39
001a
0017
ff3d
003d
ff8b
ffed
0004
004e
0017
ff9b
0029
006f
fff2
00e4
fffb
ffdf
0050
005e
0105
0101
0113
00e8
0107
ff50
fedd
fe8e
fefa
fe48
ff75
ff92
ffeb
ffc8
ff40
ffd3
006d
ffaf
ffb0
fec9
ffa8
ffd7
000b
0173
0002
ff26
0020
ff53
ffea
0051
00e0
0106
00e8
ffc8
ff05
fe66
feae
fe65
ff1c
ff60
ffd8
ff7b
ff64
ffe4
fefd
ff8a
fec3
ff83
ff75
0076
0094
0063
006f
ff05
fe9d
ff2a
ff10
ffad
00de
01ee
00bf
0087
ff22
fe91
fede
fdeb
fe41
ff7f
000f
004a
0039
ff6f
fe8e
ff45
ff7d
fff4
ff2e
003a
0008
ff3e
ff12
fefa
fe8d
fdf1
fef2
ff6b
0096
fffa
ffdb
0045
fe8c
fe6c
fe72
fd9b
fdfa
fe88
fff3
001a
ff89
ff88
feec
ff19
ffb5
0097
ff79
ff36
ff61
ff42
fed8
fef9
ff73
ffa8
0086
003d
00ac
005a
0018
002c
ff10
fe98
fddb
fda2
fe08
fef8
000b
ff61
0009
ff5f
fe98
001d
ff6b
ffff
fffc
ffd6
000a
0012
002b
ff86
0074
007f
00b7
ffd8
ffdc
0019
00bb
00f6
ff20
fe46
fde2
fd6d
fe95
0004
ff3c
0004
0011
ff7e
ff5d
002f
ffe3
ffd6
0002
0086
ffc9
fef8
ff8e
004e
ffc6
ffed
002e
ffc7
0015
001a
007e
fffa
fe33
fd18
fdc3
feeb
fefe
ff0f
ff2b
ff74
ffe4
ffa9
fe7f
fefb
005b
ff9b
fee2
ffe5
ff6a
ff8b
ff4f
ff4a
006b
003c
00bf
fffe
0014
000f
006a
ff18
fd78
fded
fe6a
ff53
ffc4
ffef
ffa8
ff5f
ff89
fee7
fe6b
ff6c
ffc4
0035
0024
ff63
ffd7
ffd7
ffd4
ffb8
ff8d
ffb8
ffb9
001a
0045
ffce
ffe7
ff22
fe3a
fdfa
fe43
ff2e
ff42
ff62
ffaf
ff4b
000f
ff63
ff7a
ffaf
fe4c
ff37
ffb4
ff6e
ff47
ff7b
ffbb
ffdc
ffef
00d3
ff7d
0076
ff8d
fff2
ff49
fe35
fda1
fe38
ff4f
ffc1
fff3
fffd
ff60
ff88
fffc
002a
fff7
ffef
002f
ffa7
ffa9
ffde
ff66
fffb
ffc9
0019
ff86
fffc
002c
00cf
0029
fefa
fe89
ff01
fe51
fe9f
ff78
ff9e
ff8a
ff69
ff4b
ffbb
ff39
ff5a
ff70
fff3
0040
0065
000e
006d
0066
00d4
00bf
00ae
008d
ff84
00d9
003b
ff7a
ffe2
ffd6
0018
fed9
ff13
ffe3
fffc
ff3f
ffb1
ffbd
0036
ffb6
fff4
003a
0016
001d
ff58
003a
00b7
0196
020c
0270
0190
01aa
01c5
01ac
023d
0128
0110
01d1
00f0
0086
005c
ffdb
ff50
000d
ff5f
0033
0011
ff90
0007
ffdc
ff65
fff7
ff92
0086
008d
014c
009b
0147
0133
010c
022b
01a3
0115
011c
00a8
00bb
0052
0066
ffa1
0035
ffcb
ffc3
ffea
fffd
ffdc
ff30
003b
ffcc
ffd5
ff85
0048
ffc4
ffa8
ff3c
ffaa
ff88
0008
0027
0017
ffae
002f
001b
ff72
fffc
0019
0040
ff6c
ffb1
002e
ffc1
ff96
0038
ff84
0052
000b
ff7b
0080
ffc8
0071
0030
ff7a
ffe9
ffae
0000
0092
006f
ffb8
0088
ffa5
ff8a
003d
ffd8
0093
ff87
0003
0010
ffec
001f
0050
0051
002a
fffa
ffba
fff8
fffa
003a
0036
0069
ffc4
ff7f
ff82
fff6
0084
0065
ff8a
ffb7
fff9
0000
ffca
ff99
0076
0048
0080
0071
ffb6
0075
ff7d
fff6
0066
0065
ffdf
ff81
ffed
ff99
006e
004f
ffab
0059
0084
0032
ffcc
0062
0056
0041
ffec
006b
ffdd
007a
ffc7
00c3
ffcb
ffe9
fff5
ffa3
ffc9
fff0
0037
0089
fffd
ffe6
ff8e
fff8
ffe8
ff9d
ffc1
0076
0019
00cb
0083
0050
0020
0019
003b
ff68
ff06
0062
0105
fff5
0000
0039
ffe0
fff9
000f
ff83
0006
0048
000d
0030
ff99
fffb
0077
ff59
ff72
00b7
002c
ffce
ff87
fe5d
ff37
ff39
fee0
fec1
ff7e
002d
001f
00db
013d
00bc
007f
ff83
ff9e
0003
ffa0
009c
0036
0008
0071
0103
016b
0124
027a
0321
01f6
ffb8
ff8c
fe71
fcbc
fe1f
ff57
fe82
fe81
ff67
fefe
0087
0040
010d
008b
0032
ffad
0005
0042
0044
0088
ffe4
0067
01a9
0146
017e
0187
01f1
019c
015e
ff85
fe7e
fd24
fd04
fe3a
ff83
0087
0038
013a
00ee
0059
0011
0063
0029
ffbe
00af
0019
0080
008d
0128
00f5
0142
0127
014e
0114
01fb
01ce
0090
0015
fea9
fd66
fd0f
fed3
00aa
0149
0102
011a
004f
00e0
0022
ffdf
ff7f
ffa1
0032
0085
006b
00d4
00cd
00d4
0146
00cb
0194
00a7
014f
01c2
0162
0080
fe6e
fe81
fddd
ff2d
013b
0129
017c
00c4
006f
007f
003c
fee5
ffab
ffec
ffe3
ff90
000b
0099
003c
0080
00a9
0026
0092
00dd
00f9
0131
015b
0092
fea1
fdaa
feea
00de
0229
01a6
0090
0006
00a1
003d
ff70
ff63
ffe2
ff8a
ff9f
fffd
00ae
00c8
ffda
ffa7
0043
fe82
ffd0
ffc9
006f
0042
ff51
fd8c
fe12
fd8b
ff61
0177
0288
00ec
00b7
0089
008c
feec
fe4c
ff8d
0012
005e
ffa9
0063
0067
00be
0094
ff78
ffea
fe11
ff94
ff34
fe3c
ff0e
fe93
fd97
fcf4
fd62
0045
00ee
0101
00ff
fff2
fef5
ffca
fe7a
fe6b
fe91
ff45
ffae
ffec
0084
ff95
000a
000d
ffc3
feec
fe76
ff04
fe7f
fd95
fdef
ff86
feaa
fdcf
fe65
00b7
00c9
00a5
002a
fe72
fea9
ff89
feeb
fead
ff51
ffe4
ffd3
ff81
ff9f
ffc3
ffb6
007d
ff32
ff3f
fe9b
fe67
fede
fe3c
ff67
ff41
fe0f
fea1
ffb0
ffc5
00c4
0136
0118
ff28
ff66
ff5d
ff06
ff19
002f
00ac
004a
000a
0063
0028
0094
0011
ffbd
005c
feb2
ff8b
ff2a
0043
00e8
00af
ff87
ffe3
0063
0022
0114
00f8
00a0
0154
0047
0006
000a
0074
0082
fff7
ffb3
0035
0073
ff92
000e
fff2
ff78
ff06
ff9e
00ab
0072
0059
0009
006e
fffb
00a7
00bc
0087
004e
00e7
0136
0143
0169
0138
0101
016f
0012
ff54
ffa1
0081
0070
fff3
ffcc
ffd6
ff7e
fe9c
004b
003a
00b3
00aa
0001
ffca
ffa4
004a
0132
0166
0110
00ba
00fe
0268
00d9
01db
006a
ffe9
ff85
000d
0077
0037
ff80
0099
005c
ffa6
ff44
fef9
ffdb
0000
ffa8
ff7c
000b
00df
ff7c
fed5
008b
014e
00b0
00ee
0209
015b
0167
00dd
0089
0058
0114
0017
ffc5
ffcc
0083
fff1
0060
008b
0025
0058
ff9c
009b
fff2
ff99
ffec
002b
ff91
ff58
00f7
ffe9
0085
0148
012e
00f7
ffc6
ff55
ff22
ff95
007d
ffc1
ffb6
ffc1
0078
0033
0062
00d6
0020
0054
010b
0144
0069
0042
ff42
ffa9
fec8
ffce
0087
0105
ffc1
002a
fee0
fecc
ff08
ff1a
fefd
ff19
fee3
ff9a
0040
004d
ffe3
ff8c
008d
001d
0067
fef5
0013
00c1
0034
0013
ff99
fec5
ff42
0045
0076
0082
ffbc
005b
fe3f
fdd9
fdc3
fddf
fea2
febc
ff16
ff80
007c
ffa7
ffd3
ffd1
ff9a
00c6
000d
006e
ffbc
ffc7
004d
ff9d
ff54
fefb
ffc7
fff8
000c
ff9d
0011
ff77
fe6a
fe2c
fe91
fea7
feae
fe43
ff17
0009
ffaa
000b
ffae
ffbe
ffaf
000f
ff99
000c
004a
002a
ff10
ff76
0015
fe78
ff53
ff78
fef1
fff1
fff7
fea9
fdd0
fdf9
fd18
fdb9
fe11
fe49
ff20
ffd9
ff73
ffa8
0093
0016
ffb6
ffa6
00b9
017c
017d
01b9
ff98
ff82
ffa4
fec7
ff63
ff3c
ff36
ffdb
ffbe
fe56
fd6d
fcfd
fd2f
fdfd
fe47
fe6c
ff66
0016
ffc9
fff8
008d
0026
fffd
ffc3
0084
01e9
0134
0035
0024
00f7
ffc6
ff92
ff3d
ffe8
ff9e
ffdc
ffc3
feff
fdd9
fd73
fde5
fe47
fe48
ff12
0022
007a
ffad
ffb1
0040
ffd1
0063
00a5
003f
ffc9
ff5a
0028
005d
ff4c
ff0f
fffc
0145
0060
00a8
004e
00b9
ff95
fe95
fd93
fdba
fe9f
ff9a
0005
004e
ff91
0067
0005
0063
0056
0053
002e
ffba
ff0c
fe5d
ffea
ff63
ffc1
feef
ff05
ff1d
008c
ff61
00cc
0029
0039
ff3f
feba
ff54
ffae
0027
ffaa
ffa1
ff90
0096
ffa2
ff93
fff9
ffec
0045
ffe8
ff87
ffbe
ffca
ff84
ffa9
0002
fff9
ffec
0005
004c
000d
00c4
ffee
ffff
006b
0062
0049
ffee
0016
0057
0089
ffbf
0056
0047
ffe5
00a1
008e
0006
0044
fff1
007f
ffad
ffd3
0075
0011
0003
ff9a
0074
0044
0038
00a1
ffc8
0087
003a
ff91
ff92
0016
ff9b
004a
ffdd
00a2
fff3
ffe7
009a
ffe8
fffa
ffe6
0045
000f
001f
000a
ffd3
0061
ffe1
ffb6
ffe7
007b
ffe6
ffd1
0074
007a
001b
006b
000f
0072
002e
ffee
005f
0032
007a
ffea
006d
ffa0
ffe9
0006
002a
ffbb
0026
ffef
fff6
0001
0049
005c
0005
0026
009d
00e4
00b7
0095
ffca
0094
000e
0008
0068
0096
ffc2
00a8
00ac
fff8
0044
ffef
ffcd
00b9
ffdc
0061
0011
0004
0006
003c
007c
ff47
0039
fffd
0017
0015
fff5
0061
ffb7
005e
fff7
0066
0060
ff92
ffa0
002b
005a
000d
0017
ffd2
ffbf
0095
0054
0047
00c3
0041
00f0
00e8
011f
0109
00af
014c
ffcb
004c
0057
ffb9
ff9d
0058
0126
fff6
0081
0088
005c
ffda
0078
001b
ffc2
00ce
00f0
ffe6
ffd8
00c3
ff65
ffb0
006e
005e
0085
0095
00e4
0028
0130
010e
003f
0020
0118
fecb
ffd6
00f1
fff8
00ba
0026
ffd5
001b
005c
00a9
00d8
00f4
ff98
fef9
ff98
ffe7
ffed
fff4
0081
00c9
00f6
ffdf
ffd9
002a
00c9
0155
00d5
0128
fff7
0047
0054
006d
0109
0083
ffac
0011
000b
0035
00a8
0121
00e1
ff25
003b
002e
ff5d
ffe4
ffe5
0038
0034
00d4
0013
00b8
00ab
0082
00c0
00c4
001b
feb7
ffea
ffc0
0047
000e
0002
00a0
ffe8
0040
0055
0111
0162
fec8
00d1
003a
ffd1
005d
ffa8
ff90
00b0
0059
0048
009b
0067
0083
0059
ff5b
ffd5
ff73
ff29
ff4f
ffb7
001e
00b2
ffe0
ffb3
0036
00ad
0155
0066
001c
00c4
012c
ffea
ff66
fe99
feee
ff1f
ff6b
002f
ff88
ff38
ff72
ffc5
ff44
ff88
ff9e
0028
fffd
0006
ffc8
0058
0000
fff9
ffff
025f
0128
ff2e
008b
ff9a
0052
ff4f
febf
fea8
ff82
ff11
fea5
feb9
ff76
ff6d
ff6f
ffc0
00de
004f
0000
004d
00e3
00e4
0079
0015
ffe9
ffe4
00ba
0058
000e
ff8d
ff72
fed3
fefd
fd72
fe01
feb5
ff8c
0010
ff80
feb7
ff7b
ff48
ff98
000b
00eb
00d3
00ad
00d8
0066
00af
004a
0089
0073
001d
003c
fff6
ffdf
ff62
fe44
fefd
fe24
fec7
ff9d
0020
018a
0145
00fa
ffaa
ff4f
ff40
ff37
fe7f
feed
fef8
011e
0128
0005
00e4
0034
ffc8
0063
ffb6
0056
ff6d
00e4
ffd9
ffe4
feb2
fe2a
ffb5
0097
00f7
0127
01c0
0105
002b
ffbd
ffe9
001a
ff5b
ff41
fe5f
ff7d
00f8
00a5
ffdc
000d
ffee
ffa2
0031
0062
002b
ffc9
ff34
00c0
ffab
0074
0162
011b
0180
0185
0149
0077
0082
000f
ff9e
fffb
ffb8
ff1e
ff28
ff82
0074
00ad
ff7a
0098
00a8
0075
00c4
00db
fffa
ffcd
ff99
ff45
fed4
0086
01cf
0252
02f2
0275
0180
006d
ffd3
001a
ff32
ff7b
ff67
00fd
fffd
00ad
006c
ff73
ff90
0078
000a
002c
0058
0090
005b
fe6e
fe02
fcb5
fcd0
fdb7
ff95
0133
02e1
02b7
030c
00e2
fffe
ffb2
ff74
009a
ff4d
0047
0046
00af
000a
0060
ff6f
ffc5
ffde
ffa8
ffa0
0118
00ac
ff16
fc64
fae5
fd4f
fa91
fa79
fc4c
fe55
ff89
004d
feaa
ff8d
0020
001e
002a
0046
ff80
0015
ffbd
ff4b
feac
fff1
007b
005a
000e
fffc
00dc
00f3
ff53
fb8a
fc2b
fb40
f8c3
f7a9
f881
f8db
fb07
fbdc
fd13
fe74
0067
0077
00c7
0008
0162
0165
ffc5
fff3
ff51
0016
fffc
0042
0039
ffbd
007b
00bc
ff04
fd2d
fd78
fc69
fa39
f933
f9d2
f995
fb54
fca1
fd99
001c
00f0
001c
00b6
003a
00c7
00eb
ff50
0043
ff8b
004b
ffab
00a8
fff2
ffa2
0097
0167
fffd
ff17
ff09
ff27
fe49
fe7e
fe30
fe32
feac
ff35
ffd1
0069
ff93
007b
0010
001c
009c
0082
fedb
ffe7
ff7f
0078
005a
0063
ffff
0007
0005
0178
0162
00f8
0198
01e4
019e
0071
017f
0177
01bf
013e
0057
003d
003c
ffbf
ff8b
0006
fffd
ff28
ff33
feec
ffc7
ffe1
002b
ffa0
0019
0070
002d
011c
02cf
0273
0189
0254
014a
0130
0304
02dc
0166
016c
00dd
00fd
ff8a
fef5
ff54
ff7e
0082
003d
ff96
fef1
ff5d
0058
ffc7
ff9c
ffee
005e
00b6
018c
034a
0356
02bf
0235
02b6
0200
01d9
02bb
0167
0126
012e
007c
ffa6
ffdb
ff01
ff6d
ff76
ff3b
fe93
ff92
ffab
0057
fff9
0018
ffc1
0064
0014
00aa
0187
0208
02a9
035f
021c
0285
029c
0108
00fc
0138
0182
0065
0093
0137
ff00
fea9
ffc6
ffc9
0051
ff9e
fffd
ffbf
0066
ffc6
0000
ffea
003d
fff2
00b1
01a1
0218
02a8
02ee
01b1
021a
013b
01b8
0070
ffb0
ff61
ff88
ff49
fedc
0054
001b
003b
00b3
000f
001a
0026
0062
0020
0027
002c
ffde
0050
0026
00e7
fff1
ffce
ff8e
ffea
0017
0021
0066
00bb
ffa4
ff48
fff8
ff97
ffab
0042
0011
0023
00a1
ffa3
ffba
0036
ff95
003d
000d
007f
ffe7
ffa8
ff9d
ffbb
ffd9
00a3
0097
0031
ffaf
ffda
0031
ffb1
ffb8
fff0
002d
fff7
ffef
ffeb
00a2
0079
fffe
ffd5
0055
0063
005f
008c
ff5a
ffd9
ffc7
ff44
ff43
0026
ff7d
003b
ff26
003d
ffec
0030
001e
ffe8
0022
ffac
003d
000e
ffb4
ff22
ff51
0015
000f
ff9a
ffde
001f
ffc7
ff52
ff79
ff5d
fff3
000a
000b
fffd
ffc5
ff59
0029
ffa4
0018
ffa9
ff55
ff7e
000b
ff1e
ffb8
ff24
ffd6
001c
ff22
001f
ff93
0035
0030
ff24
003d
fff9
ff5a
ff2b
ffc3
ff6f
fff3
ff35
ff63
0021
0029
ff70
ff44
ff84
ff54
ff2f
ffb1
ff5d
ff3a
ff63
ff6d
ff71
0027
ff73
ffff
fffb
0022
0041
ffd4
ffa6
ff75
ff91
0035
ff53
ff22
ffd4
ff80
ffc8
ffb9
ff5c
ffae
ffbb
ff5b
001b
feed
ff64
ff2d
ff9d
ff2f
ffc4
ff9b
0007
ff71
fff4
ffbb
ffd0
ff7d
ffc2
ff56
ff92
ff2a
ff5b
fffe
ff23
ff97
ffb9
ff83
0003
ff69
ff5c
ffd8
ff19
fe5f
fee2
ff1a
0068
ff9a
ffcb
fe46
fe88
febe
ffc2
ff7d
ffc1
ff7e
0023
ff62
0035
fff1
ff7f
ffcc
feb5
fe78
fefd
ff46
ffff
ff50
ff85
fece
fef2
ff00
ffbe
ffe4
ff67
0033
ffbf
00f9
01a3
002a
ff44
ff32
fffc
ffe7
ff81
ffb3
ffb0
ffaf
ff98
ff53
fef9
ff23
fffc
0036
ff62
ffe0
ff7a
ffbb
ff4c
ffcf
002e
ff8b
ffe1
00e3
0057
01a5
013a
0120
00b0
00ca
ffd9
002d
ffe4
ffa7
0033
0003
ff0c
ffe6
00b8
005e
00a9
0068
fffa
003c
ffe9
ffdb
00b0
0144
0161
00d2
010b
02a5
017a
012b
0263
021e
00f4
ffe8
fffb
ffdc
ffbb
ff96
ff93
ffa8
ff8e
0050
000b
fffd
ff5c
fec8
ff83
ffe6
ff66
0100
016f
00df
00f6
01c5
0254
0209
0253
027d
0239
0251
02fa
0124
0063
0008
ff7d
ff60
ff90
fffd
ff3d
0064
ffd2
ffb5
ff3c
ff4f
ff9f
ff76
ffee
ffd6
0102
0051
0106
0113
0143
0176
016a
0025
00b8
0254
02f3
01f5
0245
ffe4
feec
ff6c
ff38
ffa7
0014
ffc6
ff80
0036
ff09
ff61
ff2a
00f3
00c5
00b4
009f
00b6
ff79
0076
ffb4
0053
004d
ff74
003d
00f5
0283
0350
01bc
ffe7
ff27
ffbd
ffb9
fff6
000c
0035
0005
002a
ffc6
ff2a
ff6d
0066
ffa0
ff16
0024
ffcc
fead
fda4
fddd
fe36
ff76
fe38
ff25
ff81
0122
01d6
0184
0058
ff29
ffbb
ffdd
ff35
0033
ff6e
ffbe
ffc2
ffa6
ff46
0060
ff32
ffa1
ff66
ffc9
ffa7
fde2
fda8
fe03
feae
fea3
fd8e
fe37
ff18
ff8a
00bf
002a
ffec
ff4b
ff86
ffc2
0006
ffff
fef9
ff9d
feb2
ff5e
ffbb
ffa7
ff92
ff34
002a
fff4
0052
fe0d
fdad
ff0b
fdd2
fee2
fe13
fde6
fdbf
fef3
ffe4
001b
ffbb
ff9b
ffb4
ff6a
ff4b
fec8
fdc3
fe4f
ff41
fefe
ff9d
ff77
004c
0041
fffb
00a8
ffe9
ff38
ff0b
ff74
fe23
fe27
fe7b
fdf5
fe30
ff22
ffd2
ffc5
ffb3
ffd4
ffcc
0005
ff98
ff8c
fef5
fee9
ff83
0052
0026
00d1
003b
00f3
0159
fff5
ff46
fe2f
ffc3
fe32
fecf
fe9b
fecf
fe04
fda8
ff14
017c
0037
ff6c
ff9b
ff6d
ffc0
ffb3
ffc7
fe7a
ff5c
ff9b
0025
003c
0084
01bd
0105
00d3
00aa
ff75
fedd
ffa9
fe4e
fe02
fe09
fd02
fe9e
feeb
0003
0115
00d3
009b
ff43
001c
ffff
ff52
ff82
ff93
003c
ffc2
ff94
fff7
00d7
016c
00e3
fffa
004c
ffaf
ffc5
ff06
fdfe
fdd8
fe2a
fe3f
fec7
ff72
0122
00bb
ffcd
ff67
ff71
ffb2
ff31
ff79
0032
005a
ff3b
ff91
ff13
0079
0069
0119
ff42
fffc
ff68
ff16
ffb3
fe66
fe7c
fe8a
ff19
ff2a
ff4b
007a
016b
0100
001b
ff91
ffb7
0004
ff21
ffc6
ffbf
0039
ff9d
00c1
0041
ffed
ffce
0012
ff50
0053
ffcb
ff2a
ff83
ff8a
fe9e
ff47
ff2e
ffc2
ff85
0189
022d
0162
0009
000e
ffbe
fff1
ffe9
ff1c
ff9f
0018
00cc
0171
0137
0073
0032
00ac
005b
00dc
ffa0
ffd4
006f
ffee
007d
00ea
0064
ffd2
0136
0216
02c0
0149
0013
ffcd
ff8d
002f
ff2f
0010
fffb
005b
0067
0125
010f
ff85
0038
0020
00ec
009a
00f6
0174
0142
008d
00a3
0148
01f4
014a
00f5
026c
01c6
0194
0092
001f
000e
fff0
ff9c
ff33
ffd6
010a
012f
00f1
00b1
ffbe
ff5c
ff48
008b
00ae
00f1
00fe
011d
006b
0194
0237
012f
00a4
0140
00f3
013a
00d4
fff7
0042
ff60
0032
ff56
ff5c
ff98
ff6a
00a8
0023
ffec
00a4
009c
0035
007c
0151
00bc
0119
012b
0191
0204
0171
0178
0025
ff7f
002e
00b9
ffe5
ff90
ffe2
ff86
001a
ffd3
ffbe
ff5e
fef8
fdd8
fe3b
fe9c
ff8f
0113
00c5
0045
021c
0225
0192
0247
0294
01b3
01ec
0191
0052
ff2b
0023
007a
0085
ff60
ffb6
ff82
ffab
ff3f
ffac
ff8a
fe73
fec1
ffd1
0002
ffc1
00a4
010c
00e5
01f3
01f0
014f
027f
0200
01e7
020a
0273
0081
ffcc
00d6
ff9b
0056
0030
ff86
0027
fffd
ff89
ffc8
0003
ffba
ff30
ff41
ff5f
ff0e
ff17
ff8d
00eb
00e5
00a2
ffde
00d7
00cf
0005
00cc
007f
ffdc
ffa6
ffbf
ff51
ff72
ff9f
ffb2
ff51
fff1
ff8d
ffb8
ff45
ff7e
ffe1
003a
ff84
ffde
ffea
ff47
0041
ff69
0022
ff55
ff99
ffc1
ffc8
fffe
0000
ffb9
ffd0
ffd8
fffc
0001
ff94
ff76
ff60
ffe9
ff7e
003d
fff6
000e
0064
0075
ff62
ffe2
ff7e
0052
ffb6
0058
ff6e
0059
ffa2
000b
006d
ffc2
ff63
0059
003d
ff8e
ffc9
001d
ffcc
0033
0062
ff86
fff4
0069
ffbd
002e
0048
001e
ffe1
0081
ff7b
0083
ffe7
0051
ffac
ff5c
0077
00be
ffd8
002e
fffd
ffea
ffe1
0064
003d
ffcb
ffca
0018
fff2
ff70
0056
ff5d
003c
0008
ff62
ffd6
ffe4
000c
0093
0036
ffd5
0064
0015
ffd5
ffe9
0006
ff85
ffd8
ff70
ffcd
0028
ffd3
005d
ffcf
000b
002b
0019
003b
ffc1
fff6
ff6c
ffd9
0015
0090
00ad
00d7
0044
0178
00e2
0114
00b0
ffd7
ff0d
fe87
fe8c
ff18
fef6
ff26
ffea
ff45
ff7d
005f
ffee
ffd9
000e
0008
ffe3
fff0
ffe8
ffea
0040
ffad
ffc5
0072
00e3
017c
0186
0139
ff7c
ff58
0023
fe37
fdd4
fed3
fe03
ff0b
fe3f
fe78
ffd2
ffe9
005d
ffd3
ff5e
fffb
ff86
ffb3
ff72
001b
0003
ffc7
ffa4
006d
0159
01d9
024b
00e2
01f9
0209
0133
001e
fe70
fce2
fd8c
fe57
fe17
fe13
fe88
ffe6
0003
ffbf
ffed
ff75
ffa7
ff81
ff54
ff02
fe7e
ff6a
0085
0022
010a
0204
029a
021d
02c1
0187
00dc
ff0b
fe00
fd7d
fb95
fcef
fd76
fdca
fe33
fe50
ffd8
ffa0
0003
fff3
ff80
ffcc
ff32
ff1c
fe61
fffc
005d
0113
00bd
0194
0204
01f1
0152
0067
0026
ff00
fd5f
fdab
fcbf
fc80
fcbd
fcfe
fd46
fe98
ff7d
ffac
ff81
ff97
ff47
ff83
ffed
fec1
fecf
ff7d
ffb6
00c9
003a
00aa
0124
0018
ffde
001d
ffab
000b
fee7
feef
ff6b
fe01
fec3
fd25
fdae
fea8
ff99
0078
ffc1
0034
ff50
ffaa
ff52
ff98
ff8a
0100
0075
00f8
00e5
01dc
009c
ff7a
fff9
00c6
000c
0036
0068
0128
005b
fee3
ff29
feed
fe1f
fef9
ff8c
0022
ff3b
0070
001d
ff66
0078
ffa6
0084
01ad
0120
01d8
010b
0129
ff88
ff8a
0055
016e
ffff
014a
0279
0180
0139
0019
ffb7
ffdd
ffdc
ff35
ffee
ffbd
ffe8
0023
ffac
ff00
ff89
0066
00da
012c
00a4
00fd
00d6
0006
ff37
0019
00c0
fffb
ffef
01e1
02e1
0171
0139
0104
00b5
0065
014a
017d
00c8
ffaf
0014
003b
ffc2
ff57
ffc6
0194
01a0
01a4
0050
0049
017d
ffd3
fe5a
ff63
ff78
0016
ff9c
0177
0193
00b6
0080
0094
00ad
0012
0202
0053
000e
0041
004e
ffd4
0030
ffd1
008f
00f0
ffde
006e
0163
0008
0095
002e
ff5d
fed3
ff3c
feb8
ffb0
008f
ffe9
004b
00c1
0042
ffa5
0054
001b
0082
0024
ffc0
0094
ffa3
000a
ffd1
ffbc
ff92
ff69
0042
00c6
0113
007a
ffdb
ffd7
fe54
ff4b
fe8e
ff7b
ff6f
0026
ffe3
ff09
ff13
002e
ff56
00fe
0116
0043
ffc2
fffb
ffb3
0051
ff3f
fef2
ff02
ffa8
ff7a
0007
0040
ffe4
0015
ff33
ff46
ff8e
ff97
fff3
ff73
002e
004c
ffb3
00aa
0023
ff90
0045
018f
0076
ffd3
ffc9
0077
ff75
0036
002f
005c
0004
fe68
fef2
ff40
ff5c
007e
0025
0035
0086
ff0a
fe3b
ff2c
fed7
ffa6
0037
ff93
fffc
0071
0136
0035
0074
0063
0026
ff5f
ffe6
006b
0085
ff9e
0054
ff55
fe66
ff9c
ffa2
01eb
016d
021a
00fd
fefe
fe5a
fe72
feed
fe18
0059
ffaa
0004
0083
ffef
0059
ffcd
ff8d
0066
ffdc
ffdf
ff88
ffb5
feb7
ff2c
fffe
ff30
fe94
0083
02fa
03bb
030b
ffe8
fd48
fd7c
fe3f
ff0e
ff84
00a0
00c7
0093
01a8
013c
fff0
0012
ffe7
0007
ffd9
0039
ffa9
ffc9
ff46
ff0f
fe3c
ff41
fef5
003d
02b6
0200
0242
ff82
fdec
fe4c
fe99
ff81
006d
0150
00a3
01ce
01ea
01b5
009c
00c8
001b
ff92
ff9c
0062
0054
ff34
ff81
ff94
fe9c
fecd
ff2f
0023
013e
0059
ffd0
ff3b
fef3
ffb3
00cc
0027
0118
0226
017d
00d2
0111
0176
015d
00a6
0039
ffa0
ff85
ff91
ffe8
001a
ff6c
fed5
ff18
ff06
fecc
fed1
ff9b
fec9
fe8d
ff14
ff95
007d
0103
0118
015f
0032
0162
ffe9
0098
00d4
0135
0059
0082
ff90
0072
000f
0028
0032
0047
fee1
fe6d
fe6f
ff2e
fe60
fe24
feaf
ff6f
002d
0107
01bc
0148
00cf
0092
ff63
00fc
0019
00c9
00c6
010f
0094
ff81
ffc7
ffa4
0014
0036
0076
ffc3
fed5
feaa
fdb7
fea8
fe6d
fe61
0025
ffe4
00d2
021f
0181
007e
004a
00e5
002b
0082
00f1
0113
01e1
00c9
ff89
fffb
000a
ffc5
0057
ff94
ffb5
fff1
fe94
ff24
fe64
fe9e
fe85
0047
005a
010d
0115
01d4
015d
0244
0047
0185
0189
0168
007e
01a5
00a2
0038
fffe
000b
0002
fff3
0056
ff7a
ffe6
0032
ff69
ffdb
ffec
ff58
ff81
ffe4
ff24
00f1
0126
0216
0132
021c
019c
0053
021f
02a6
0137
004d
0027
0079
fffb
ff76
0071
000f
ffd7
0073
ff9f
002a
0013
002f
ffb0
0031
00cc
00d7
00cb
0179
01d7
0210
01ad
020f
0186
0216
01cb
0197
00ed
0069
003c
fff8
ffd2
0069
ff90
ffe1
ffc5
0057
ffd9
0058
0001
000a
ff7c
0013
ffbd
003d
ffc7
0038
ff98
ffc3
ffd0
ffef
ffd7
fff1
004c
0036
ff9f
ff77
ffd2
ffc7
ffda
ffb2
ffcb
ff73
ff72
ff98
000b
ff88
ff2c
fffb
ffda
ff95
ff65
ff57
ffa7
ff86
ffe8
0015
ff7b
ffc9
ff6e
ff5b
ffba
ff9e
0041
ff21
ff2d
ff23
003c
ff42
002a
ff3b
ffce
ff57
ffea
ff56
0004
fff9
ffef
fffb
001e
ff75
fff5
0034
ffc0
ff52
002e
003b
ffff
ffa9
ff50
002a
ffce
ffbb
000d
ff4a
ff7b
000c
ffe4
ffe2
0015
ff5c
0045
ff89
003c
fff3
ff6c
ffc7
ffba
ffa5
ff3c
fefb
fe9a
fe6a
fe3a
ff30
ff2e
fef6
ff01
ff93
ff50
ffde
ff9d
004a
ffdc
0027
0029
ff3b
0023
ffd7
fffa
ff39
ffff
ff37
fef7
ff72
ff4d
0054
ffee
fff9
ff45
fdf2
fe99
febe
fe3f
fe61
fe39
ff53
fe6a
fedf
ff16
ff94
0012
ffb0
ffe3
ff45
ff5f
fff7
0012
0012
fefb
ff3f
0000
ff99
ff0d
0036
006a
00ef
ffd6
ffcd
ff62
ff42
ff25
ff9a
fe2c
fe6c
fe38
fec3
fece
ffc1
ff86
000e
ffa4
ff64
ff34
ff90
ffbb
ff4f
ffbb
001c
ffda
0022
0022
00a4
017c
0150
017a
ffd1
0059
ffb0
ffb9
ff3b
fee5
ff46
ff31
ff61
fe4c
fe78
ff41
ff2d
ff44
003e
002b
ffef
002e
ff4d
fede
ffa8
0031
ffd8
00f8
00f2
0153
00c3
00de
0121
00ba
00f5
0120
0034
ff88
fea0
000d
feab
ff0d
fe98
ff59
ff78
ffcb
ffa9
ff22
ff61
006e
0011
ff21
007d
fee0
003d
003f
0189
0020
0084
014c
000a
00b1
00d0
003e
00bd
001b
ffd8
000c
ffe0
ff94
ff23
ff46
ffc2
ff48
ffc5
ff54
ff81
ffbc
fffc
ff9a
009c
ffa9
011e
00b8
01da
0109
00f3
0101
01cf
0145
015e
0072
00aa
0085
006e
006c
008e
0011
fec1
ffa8
ffb7
0017
ff4c
ff90
ffa3
ff9d
ff6c
00a2
0044
ff83
0078
0189
014a
0125
010d
01cd
01f1
0141
0050
015a
00f1
00a0
0039
006a
009b
0067
ffe1
ff1c
ffe0
ffe5
ff38
0025
ff90
0035
ff4d
ffdd
0098
009d
0061
0105
0116
016a
0126
01d2
0282
00fc
00ab
0070
0101
00fd
000a
ff5a
00ce
0124
fefc
ff92
ff8a
fff1
001f
ff9b
ff60
ffb5
003d
fffc
ffc0
0114
00f2
ffb5
001e
00cd
00d9
00dd
01a7
0159
00a2
0160
013f
0122
010d
0091
0183
00ac
005d
ffee
ffd0
ffaa
000d
ff66
ffd5
ffcf
0069
ffbc
fff8
0049
ff07
ff3e
feb4
ff10
ffbb
ffe7
0188
0093
002d
00f9
0106
00fd
0140
0027
ffbf
0076
0021
0033
ffe3
ff8e
ff6f
ffb2
002a
ffb8
00a7
fee1
ff94
ff23
fee1
ff98
ff87
0000
ff61
009e
0035
ffe0
009b
00b2
019d
00fa
0024
ffe0
008c
fee2
fef7
ff9e
fffb
ff77
ffa4
ff4b
ff98
ffb9
ff68
fe43
ff80
ff66
feaa
ffb4
ff1f
008a
ffae
00c5
001b
ff54
ff5c
002e
0110
002d
0045
007b
ffa2
febc
ffcb
fff5
0053
0022
ffe3
fffa
ff73
fedc
ff7b
fffd
ff64
ff0d
ff14
ff20
ffc1
ffe5
000e
0067
fee2
ff88
ff58
0070
0181
0061
0125
003a
ff30
ff4e
ffc5
ff27
ffaa
003e
ff30
ffc9
ff88
fef6
006a
001b
ff5c
ff72
001b
0003
ffd7
0069
0135
ffe9
fe75
ff00
ffe8
0108
00f7
0040
ffda
ff4a
ffcb
ff44
fed4
ffa0
0029
ffee
003d
ff7d
ffab
ff1b
ff68
000f
ffa5
ff1e
ffbb
ffee
fff2
004b
0005
ffbc
febe
ffb5
0061
009f
ff48
ffb7
ff58
ff27
ff78
ff89
ffa6
ffe2
ffcd
ff57
ffd3
ff6f
ff79
ffe4
ff8a
ffdf
ffc5
fee4
ff6e
ffab
00f1
0009
ff41
fe73
ff3e
ff26
001b
004e
fff0
fff6
ff8c
ffc7
0003
fef8
ffe5
ff81
fff9
ff53
ff33
0032
0025
ff1f
ff4e
0035
ff81
ff79
ff98
ff2e
001a
ff34
ffb8
007d
ffe0
ffbc
ff9d
ffbb
001e
0035
ff7c
ff23
ffa2
ff04
fff3
0019
ffce
ffa8
ffe7
ff27
ffa5
005b
006b
0001
ffa3
fff4
0078
ff9a
006e
ff28
ffa1
002a
fffe
ff1e
ff2d
ff37
fe17
ff67
ff64
feee
fef1
ff72
ff46
ffa3
ff85
ffd3
fff3
ffc5
ff44
ffb2
ff2a
ff1e
ffe0
0048
ff88
0006
fffb
ffcf
fee3
ff74
febf
ff03
ff11
fe91
fdfd
feb9
fe56
fd9b
ff65
0012
ff6e
ff3e
ff69
ffe7
ff94
0013
ff80
ffad
ff25
ff87
00e9
0094
003c
0039
0076
0088
0097
ffc5
ffbe
ff76
000c
ff2a
fe2d
fd5c
fdde
fe0d
ffa4
ffa6
0087
ff75
ff7b
ff7a
ffb3
fff3
ff5f
ff34
ffad
ff2c
0006
00a7
00b7
00ab
00af
0153
0132
012c
00a5
fff3
0025
ffd3
fee5
fef0
fe3c
ff63
0043
00e4
0075
ff54
ff20
ff80
ff3c
ff66
ff75
ffaa
ffd3
0008
003b
ffe0
00c7
ff34
00ba
0106
01b0
0099
001e
000d
002d
ffda
ff21
ffe5
00a0
00af
0018
001b
0021
ff43
ff46
ff3d
ffc3
0014
0023
0041
fff2
0005
003d
00fc
0170
00f2
0121
00f9
00f2
012c
010b
004d
00e1
00a1
00bd
0147
014a
005d
ff95
001a
ff83
ff9c
0026
0019
ffcd
ffc3
ff95
ffd4
ff84
ffe1
003a
0095
007f
01e9
0123
011d
0101
0198
0275
0232
021c
0226
013c
00d8
0129
00c9
0039
ffae
002e
ff7b
ffcf
ff8b
ff39
ffc6
ffd6
0023
ff90
ff50
ffa6
ff5c
ffd2
ffe4
002d
ff89
ff83
ffff
0009
ff82
ffb0
ff73
ffd1
ffc1
0019
0023
ff48
001d
ff54
ff59
ff68
ffe1
ffd9
ffd2
ffaf
0025
0016
ffb7
ffb8
ffa8
0005
ff81
0055
ffb2
ffed
ffbe
ff5b
0000
ffe3
ff71
ff5d
0020
ffa4
ffae
ff4d
006a
ffe9
0047
0061
fff6
fff4
0024
ffab
ff4c
006b
0016
0016
ff7d
0013
ffe4
0026
fffb
ff8c
ffec
ff5e
005f
0046
ffda
ff4e
ff6d
ff66
000e
ff4e
ffb7
0068
005c
fff1
ffdb
003d
0067
0014
ff6a
0047
0057
003b
ffb8
ff83
0000
0004
ff85
ff96
ff97
ffa8
0040
ff87
ff52
ff7a
ffc0
00a7
ffcb
00a0
fff9
003e
003f
ff8c
0054
ffde
ff68
ffea
0008
002f
ff63
ff3e
ff45
0010
ffed
0146
00ea
fff1
0167
013e
015f
01ff
0174
0028
ff57
ffa1
0075
0025
000d
007c
0033
0045
ffd4
004d
ffd1
ffa8
002b
ff9f
ff86
ff30
002f
ff52
0025
ffb2
00bb
ffcf
01d2
0131
003c
00ba
012d
0160
0237
0241
00cf
01f2
0087
fea3
ff7f
0023
ff75
ffef
ff9d
0048
0076
ff73
feea
ff1b
ff58
ff94
fee1
fe96
fee3
ff05
0020
0008
0062
013c
011a
017c
0274
0292
00dc
00a2
0015
feee
ff4f
ff24
0006
0042
fffd
0041
0068
0016
ff29
fe2f
fe2d
fd73
fda2
ff9a
ff48
ff32
ff1f
fe5c
fe6e
ff4d
00a8
010e
01f0
029d
0168
018f
00ed
fe93
fd2c
fe77
ff7e
0016
ffff
ff60
fff9
ffae
ffea
ff96
ff0b
fcfa
ff61
00ad
0076
0015
ff54
fe7a
fdfd
fdad
004b
027b
0321
01c8
0149
02b8
025b
01e6
fea8
fe74
ffc4
0059
ffa8
0021
ff8f
ffe5
ff46
0017
fffa
ffc1
ff9a
ff4a
0043
ffe8
fecc
fdd4
fee4
ff08
ffb8
0067
0180
017c
0152
02be
02a9
014b
fe38
ffd6
0025
ff77
ff9e
ffa0
fff8
002d
ffa9
ff16
ff97
ffa4
0088
ffb4
fee2
ff15
fec8
ff36
fe21
fdbe
fc5b
fd64
014c
03b7
02f8
01ff
039b
00d3
feb0
ff2b
ff77
ffb5
ffcc
ff6b
ff4e
fef3
fee4
ff8e
0079
ffb0
ffee
fe94
feee
ff93
fff5
0108
ff1b
fc6e
fcf5
fd7a
00a7
0278
0385
038a
0409
01b2
fefb
ff32
0027
002b
005d
ff92
ff2f
ff22
ff00
0082
00c2
010a
0147
0009
ff44
0088
00e4
ffbe
fe55
fc69
fbd4
fd4d
0025
01e0
017e
0211
022f
0154
ff0e
ffa2
003b
ff5b
ff79
0004
ff7b
fef4
ff87
01b0
0012
005a
005e
ffa9
002f
007d
ffd8
feab
fcbf
fc3c
fc17
fd01
ffcc
014a
015e
01b4
011d
024e
ffd3
ff29
ff7a
ff7f
ff86
ffb5
fef5
0050
ffc8
019b
0064
00f6
00ae
0071
0082
ff15
febf
fe39
fcf8
fc8d
fd64
fe20
fff6
008e
010b
00a9
0067
00ba
00a8
ff3a
ff88
ff58
fff6
ffd7
ff52
ff7d
01be
015d
0202
01dd
01bc
00b3
002e
ff00
ffe0
fe93
fd6b
fd3d
fe90
0069
0105
0188
014d
001c
fea3
fe78
ffc0
ffd8
0054
0054
ffb9
0005
000c
ff00
0199
00b9
01c9
0184
0125
000b
fed4
fedd
fef0
fdb1
fd38
fe4a
ff20
008a
01d4
01ea
00dc
00e1
fef9
fdec
feee
ff8a
ffce
fffd
001f
ffd1
ffa3
0068
02a4
0114
0257
010d
0106
fec6
fd56
fd92
ff4c
fdfa
fe32
ff26
0112
0158
01e7
0203
00f1
0163
ff47
feda
ff8c
ff88
0044
ffb5
003d
ffd9
fef7
00cb
0148
00d0
01ba
0103
00d4
fe4f
fdce
ff01
ff89
ff97
ff08
fffd
ffc2
011f
010d
0016
0043
00bb
fff4
ffbf
ffe1
0063
ffd2
ffd1
004c
004b
fe84
0095
0060
00b1
01be
0239
01fc
feac
fd60
fdef
fe50
ff44
002d
ff81
0191
0105
ffdb
ffd9
ffa3
00ec
0094
ffba
ff89
ff57
0027
0063
ff7c
ff8a
ff05
0061
0192
01f6
026d
01a8
01ea
ff8b
fef7
ff4d
ff56
ff60
ff7f
ff3a
00fc
ffb6
ffde
ff6a
00ea
0237
017e
ffae
ffa6
fff2
0035
ff5e
ff80
0024
0064
00d3
011a
0192
0199
016b
00f4
009d
ff05
0056
fee0
fe9b
ff15
fff1
0058
0035
ff81
ff9b
0114
00ac
0005
ff2f
ffff
ffa6
fff2
ffae
0016
00f3
0101
0105
0072
0155
0156
0112
011b
0005
ff99
ff1a
fe86
fed8
ffb3
ffc2
ffa0
ff6c
feda
ff9d
fff1
0047
ffc7
0029
ff7b
ff5b
0043
0042
004c
0023
0024
0070
01c7
02c5
019f
01d8
0183
0133
003b
0025
ffde
ff2a
ff41
ff84
ffbb
fff2
ffc4
ffbf
003a
ffeb
ffbf
ffb8
ff7e
ff7f
0039
ff9d
006a
0006
ff19
ff19
ffe4
01b4
027a
0171
01a1
0092
0039
ffe6
ff58
ffae
ffd4
ff9d
ff85
fe70
fdd3
fdf2
fe5a
ff30
ff08
ff87
ffc8
001d
0020
ff80
ffd2
0032
ff79
ff43
0027
0053
00a6
0240
0272
01c9
010f
0139
ffaf
ff9d
005f
ffe3
ff2b
fe64
fe3a
fd9e
fde7
fe63
ffbf
ffc3
ffd8
0050
ff79
001d
0025
ffeb
fff5
002a
0028
ff97
ff7c
ff61
fff3
ffba
ff8a
fe9a
ffcc
0028
00d5
ffc4
fe68
febc
feb7
ff12
ff2f
ff49
ff3f
ff88
ff9c
ff9c
ff82
0026
0026
ffbf
0026
005c
003a
ff8a
0042
0060
ffd1
ffab
ff64
ff68
0090
0141
00b2
ffaa
ffcc
ff92
004f
fff7
0007
001b
0009
0001
ffb0
ff95
ffe3
0068
0006
000e
000f
ffd8
ffda
000c
ff74
000e
ffbf
0054
004d
ff8b
ffaa
000b
ff5e
ff8a
ff7d
006d
0024
fff1
fff4
002b
ff4a
003b
ff87
ff7b
ffc2
002f
ffbd
ffb9
ffb1
ffbb
0024
00a5
00ac
ffd1
00a8
0073
00af
00bc
007f
ffe9
00ba
ffa0
0065
0088
0046
00aa
0083
004e
ffa4
fff4
0016
ffae
ffd6
0016
0017
ff9e
0046
002f
0036
006d
ffb8
002e
00a9
0037
fff2
ffb7
003d
0019
00d3
0150
0096
00bb
00eb
0034
0007
ffc1
0047
ffac
00ae
0060
ffc2
00a8
0062
0047
004d
000e
ffd1
fff9
00b2
0001
ffcc
ffd8
ff96
0070
0023
ffec
ffd9
0034
002f
0066
fff4
002d
0093
0039
ffed
0000
0053
0017
0076
ffbc
ffe4
ffc6
00a2
0016
0090
008b
0073
ff47
ff31
ff08
fec5
fe9d
fe1c
fd1c
fd65
feb7
000c
0012
004b
ffec
ff3a
fffd
ffaf
0086
0012
ffeb
ffc4
0021
0005
fff2
003d
ffff
ff74
ffab
ffb2
ff62
fea1
fdf9
fecc
fcb6
fd38
fd3b
fef0
ff93
ffb1
001c
004c
fe6c
fe08
fe7e
0031
ff5e
ffc6
fff6
ff99
005d
fff9
00b6
ffcf
0049
ffc3
fff2
fe8b
fdf9
ff4c
fdfe
fca1
fc47
fca6
fe3b
ff83
ff65
ffde
ff3a
fee5
ff6b
005b
fff5
fe9f
ff4a
ff72
ff7d
fff2
006c
ffd7
ffa6
fffa
0073
0004
fff9
ff62
fed7
ff32
fe3d
fd7e
fd84
fd1d
feaa
fe3d
fe25
ff02
0041
fff3
001c
00c3
0026
ff66
fee5
feb0
0006
ffeb
00b8
00ba
007c
ffc1
00e4
007a
ff85
ff07
fe78
fe51
fd5e
fd1c
fd3f
fd96
ff1c
ff58
0061
016a
00f2
ffe7
0149
00b5
0166
0162
fe37
fe17
0025
ffc4
008d
0079
fff9
ffbb
00c0
0034
fe7d
fe5f
fe2f
fda4
fbee
fbea
fcca
fd2a
001e
016f
0214
029f
0288
01cb
01c3
0225
01c8
0182
ff1d
fecc
ff38
fff6
00aa
0024
00bf
006e
ffec
00aa
febd
fe33
ff58
fe8b
fdc1
fbbe
fd4d
000e
0102
0312
0379
03af
0286
0280
0259
01d0
01b1
007b
0000
ff44
ffb5
ffea
ffa7
ffd9
006a
001b
ff63
ff06
fe4f
0037
003a
ff0c
fea9
fea6
ff10
ffa5
020a
030c
034e
02bc
0247
0281
021c
019d
01a2
01d2
0076
ffae
0094
007b
0060
007b
00c2
00d2
ffcf
fef9
ff31
0057
ffaa
fe3f
ff9e
ff0a
fe95
ff9c
0031
00cb
0029
ff0f
007a
0072
01e3
0235
0120
013c
00dc
fff5
005e
0043
003a
00a5
0090
0002
ffdf
ff49
0013
003b
ff85
0025
00a6
ff28
feed
ff90
00fa
ff46
fe27
fede
fff5
0021
0051
0022
0093
0104
00d8
0099
008a
00ac
004e
0034
ffc5
006b
002a
ffbd
0091
001c
0095
007e
0041
0029
ff74
ffe7
0003
fe63
fe5a
fefb
fec2
ff33
fe94
fef0
fff4
00e9
001b
fffa
ffe8
0006
0047
009b
ffd9
ff9c
0066
00b4
015e
ffd5
0005
0026
ff1d
0015
ffde
ff8d
ff8b
fe23
ff6f
ffc1
ff7a
ff6c
ff99
ff8c
ffe6
ff80
00a1
ffd0
ffe5
002c
00a3
00bc
008c
004e
0035
0138
0107
0114
0070
ff3d
ffaa
0055
0014
ff8a
ff64
fe8e
ffad
ff80
ffde
ff0e
fed3
ff86
ff22
ff6d
0091
ff6a
ffaa
ff9b
0079
ffe7
ffa7
ff3d
00bd
0166
0151
0077
00ab
00a5
ff33
ff82
ffc5
ff63
fed1
fece
0137
fff8
0018
fecd
fdbb
fdfe
febc
ff12
0079
0022
0060
008d
001f
00b3
ff61
ffc9
003c
00c1
0120
0163
0145
0106
0086
ff8d
fea6
ffba
ff2d
ff7f
00a7
008f
ff5d
fedb
feb7
fe30
0064
ffbf
0039
015d
0085
0002
0040
002a
ffdb
ff9b
0033
ffd7
ffb2
00ba
01c6
010e
0164
00f1
ff07
ffd9
ffe6
ff3e
0089
00a9
ff4b
fe97
fea8
fe86
ff74
ff0c
0035
0125
0042
ffbf
0067
ffb4
006e
ff84
ffa9
ffa8
00a5
00ae
016c
0191
0136
009d
010f
0057
ff80
fe71
ff3e
ffa4
fe43
fd64
fda4
fe6a
fef7
ffed
0030
0031
0031
008a
004a
ffdd
ffa7
fea9
ff59
005a
0146
0146
016d
013f
01a4
00ca
0150
0043
fedc
fee7
fe11
ff01
fd0e
fc92
fd7e
fd66
feab
ff0c
ffe2
009a
00d6
0070
00b6
002c
ffe1
fff9
ff44
0057
012b
0111
0046
00bc
014b
ffeb
002d
ffa5
ff4b
fef2
fd97
fd9a
fcef
fd97
fe06
fdfd
fda6
ff69
00c8
004c
ffdc
0092
0033
ffb7
0060
ffb5
ff47
fff8
010f
0185
00cc
01aa
ff7c
ffe7
ff8b
fffa
0071
0019
fe83
fd2d
fdae
fe49
fdd0
fea6
feec
ff87
ffa9
ffba
007c
ffff
ffeb
000a
0075
ffbe
feef
0031
ffac
ffef
0101
028d
015d
0129
01a1
015e
ffdc
ff40
fdbc
fe25
fdd1
fdc3
fde8
fe65
ffec
ffcd
fff6
ffc0
0045
00af
0035
001a
0016
ff7a
ffb0
ff3a
fe0b
fd9c
ff9e
00c4
00a7
001c
ffd2
000c
ff00
fdcc
fdae
fea0
fe0e
fe6c
ff09
ff43
ff31
fff3
000c
0021
004b
005b
0073
00b6
ffdc
001d
ff3f
fef5
fedd
fe20
fe85
ff85
fe01
fec9
0040
ff44
fe48
fdde
fe7c
ff27
ff40
ffab
ff7d
ffd5
0010
009d
0021
ff9b
0008
fff3
0040
ffca
00b3
0017
ff80
ffd6
ff82
ffd2
00a8
00a4
0112
00c7
0124
00f6
00ec
0071
0021
ffca
0067
ffbe
0097
ff7c
ffc5
ffcb
003b
0043
0080
00aa
0062
009c
ffdb
fff7
00af
0098
ffa4
0068
007f
ffc7
00e7
004b
ffe8
0075
00f8
0095
0032
00b9
ffd3
005e
ff9a
0048
ffc7
ffcf
0014
0027
00a3
008d
ff56
ff8a
0024
ff91
ff20
fffd
0017
ffc1
ff48
ff4e
fffa
ff42
ffc3
0007
ff80
ff29
ffc3
0024
ff2b
ff4f
ffe2
ff46
ff3f
ff3b
002c
ffa1
0015
ff46
fff1
ffa8
ffbd
ff94
000d
ff66
000e
ff09
ff54
ffc5
ffb8
fff9
ff8a
ffa5
fffb
ff54
ff76
ff6a
0009
ff91
ffb3
ff3e
ff34
ff0f
fffa
ff14
ff53
ff4a
ffef
ff9b
000d
0008
ff40
0031
0006
fefd
fffb
fff7
ffd4
fffc
ffb7
ffb9
ff1f
fef6
ff61
ffe7
ffc1
ff6e
fed2
ffb0
fef1
ffa8
ff5f
001d
ff2c
ff27
002c
ff6e
ffda
ffc1
ff41
0039
ffd2
004c
0056
00d6
01de
02a3
017a
01a7
0248
017e
00fa
0088
00a8
ff5f
ff92
ff6c
ff7e
ff96
ff72
002c
ff7d
ffb3
ff14
ff67
ffec
ff45
000e
000d
0062
00b7
0164
029a
02b5
034c
021e
010f
00a9
00f1
0116
0101
014d
006b
ffa4
ff52
fec9
fef8
ffec
ffcd
ffab
ff5c
ff2c
ff68
ffc4
ff84
0067
ffc8
0064
0050
00b6
0094
0097
00dd
013e
00e9
00b0
009a
0149
0034
0081
00d3
010f
ff13
fef8
fe77
0050
005d
0035
ff56
ff2f
0031
ffc4
ffba
0013
0030
0000
001f
0074
fffc
ff84
ff1c
ffd5
0052
ff66
001a
0101
0018
ff18
ff54
fe87
fe91
feec
0008
ffa2
0105
001d
ffaa
ffca
ffa6
ffe3
001e
00e0
001c
0101
0040
005b
ffab
ff49
ffde
ff84
ff81
ff0e
ffb6
0016
ff86
0005
ffdb
ff34
feed
ff9e
fec2
004a
00d3
ff41
ffeb
ff16
ff72
ff11
0038
01a6
0136
00dc
0103
ffc3
006c
006d
ff9d
ff00
ff19
ff52
ff89
ffba
ffba
ff7f
00d8
0188
00c0
0127
0082
0099
005a
0045
ff64
ffc2
fffb
002a
ff8c
0020
0054
ff9f
ffdb
feab
feee
ff3a
fe41
fe46
fed8
fff0
ff8b
ff21
ff90
0021
01a1
0299
01ca
023d
00ff
ffef
ff3b
ff80
ff61
001c
ff0d
ffc3
ff52
000c
00f0
ffc4
ff8a
fe02
ff03
feb4
ff13
ff2b
fef4
00d1
feaa
fece
ffe7
007b
0170
0152
0098
00c4
0079
ffd7
ffde
ffd6
ffe2
ff9a
ff71
fed1
ff28
ffc0
0002
fed3
fe00
ff49
feac
fea7
0024
002c
002d
016e
ffe7
fe42
ff35
0025
00e6
0115
00ae
0065
ffce
00cd
0083
001e
ff65
ffc7
ff65
fec1
ff19
fea5
ffc6
ff94
fe93
ff15
0015
0023
008b
01b0
02b1
0198
ff34
fed7
ff5e
0005
0124
010d
0018
ff6e
ffa7
0180
0113
ff88
ff98
fff8
0008
ffcb
ff85
ff04
ff59
ffbd
ff85
ffa2
00ed
012f
013b
0263
024c
00e0
ffe4
ffff
005b
018c
0186
0035
ff93
ffed
0035
00c2
00d7
00cf
003b
ffc5
ff4e
ffa7
ffb7
ffa2
0036
00a6
fffc
ffca
0041
00ec
0081
011f
0199
00bc
0061
008e
01ad
00ad
0067
000c
fff1
ff13
0086
002c
0150
0037
0016
0015
ff28
ff83
0084
0063
0085
00d7
ff3a
fec4
ffcf
ff40
ff87
ff70
ff04
ffa1
0030
00e6
017f
0131
00a7
00b9
ffb4
006f
0084
0198
0107
0068
000c
ffcd
ffe6
ff2b
008d
016f
00f7
0138
00b1
ff4e
0064
ffef
ff29
fe9a
fed0
ff75
0059
0079
016b
00fc
00f9
00ff
00a4
00f8
0173
0126
0147
0013
001d
ffe9
ff93
0077
00e1
0116
00bd
014c
0094
00a4
0018
ff66
ff78
feb4
fe9c
fe1d
ff05
00f7
0052
00b5
ffe6
0052
fff6
005d
00cc
ff3b
0091
ffaa
ffbe
ffdf
ff8e
ffa7
0046
00a4
017c
0191
00a6
0035
ffde
ffd0
ff49
ff15
fdf7
fedd
ff9b
ff72
ffbe
ff06
0065
ffca
ffd3
0030
00a4
ff39
fff8
ff2a
ffe9
0032
ff2d
ffbb
ffe2
0111
0239
016c
010a
0054
0018
00a7
ff21
fe23
ff21
003f
fff0
ff60
ffc3
0087
ff3a
ffd2
00a4
0155
0108
ff32
fed9
ff6f
ff8d
fff6
001b
0029
00eb
00fa
0109
010e
00af
009a
0011
00dd
ff49
ffc0
00f2
ffe7
0010
fe4d
fef4
ff0a
ff88
00db
014a
007f
ffb1
fef6
ff5c
ff91
ff9f
ff6f
ffdc
ff9f
0017
fffd
ff9c
0098
0192
00d9
00dd
ffba
0046
fff0
00ae
00b4
004c
fff9
0022
fee3
ff30
ffa8
ff3a
0078
ffd6
fe86
ff03
ffcc
ff15
ffb9
0017
002e
009a
005b
fe70
ffed
00c8
00a3
0067
00fc
00ec
0129
016f
fff8
ff22
ff5d
ff1e
fef7
0021
ff1e
ff56
fffd
fed6
ff66
fee2
ff10
ffce
ffcc
ffba
ff9f
00e4
0004
ff20
ff3d
0049
013b
00e7
00d3
00ae
ffc5
00b2
ffbb
ff40
fecc
fdf5
ff12
ff23
feb6
ffa1
ff8d
ff75
ff07
0018
ff3e
ff50
002a
ffd3
ff68
0085
001f
ff0f
0011
0072
00d3
00de
0118
0150
ffd8
ff99
ff04
ffcb
ffcf
feaa
fef4
fe34
fefa
ff5b
ff89
ff03
ff96
ff6e
ffa7
ff1a
ff39
002d
ff6c
ff14
ff5c
ff6b
0116
00bb
00a8
00dc
015a
012f
ff5a
ffb4
0017
ffbe
fffa
fffd
ff28
fef4
ff41
ffa9
fffa
fee0
ff30
ff10
ffcb
ff6b
ffd5
ff64
ff59
ff22
fff2
ff57
ff89
ffe8
ff3c
fece
ff9c
004f
ff41
0028
ffe4
feaa
fece
ff1b
ff19
ff88
ffe2
ff90
ffcd
0004
0028
ff0f
fff3
ff12
ff95
ffa7
ffb0
0002
ff51
ff30
ff60
ff80
001b
ffc5
ff4a
fef7
ffa4
ff59
ff09
fff7
ff7e
ffbd
ff3e
ff05
0004
ff7b
fffc
ff97
0029
ff43
ffc8
ffdf
fff2
0024
ff53
ff65
0026
ff9c
ffef
ffb4
ff12
002f
ff31
ff76
001f
ffb5
002b
ff25
ffdd
ff6b
ffec
ff26
fff1
0024
ff2e
fff6
ff1b
0015
ffc8
002d
ff1d
ffc8
ffa5
0025
ff1d
ffce
ff3e
ffd7
ff74
fff5
ff4f
ffce
0037
ff46
ff6b
0054
001f
001a
ff5f
ffdd
ffcb
fffb
ffd3
ffdd
ffa5
ff9c
ff53
ff64
ffdf
002e
ff20
ffe2
ff9c
ff52
0022
0038
ffa1
0031
0036
00a0
00c5
0018
0133
010c
0022
0108
0101
003a
00d8
00c6
ff9d
ff7c
ffb8
ff5b
ffb8
ffe8
ff13
ff46
0021
ff6c
0004
ff74
fff1
0083
ffb6
0069
ff90
0015
000d
006c
ff71
00d2
0047
ff63
ffc9
fff5
ff76
ff47
ff79
fffb
ffae
fff6
ff8f
ff1c
ff80
ff92
ff8d
0013
ffd1
ffb4
ff96
005c
003e
011d
0068
ff58
ffb6
0042
014b
ff9e
00ed
004a
fecd
000a
ffeb
ff23
ff31
febd
febc
ff45
ff88
0011
0018
ff67
ffa7
fffa
ff1d
ffb7
ff87
ff1a
ff29
ff37
feb8
ff58
00f0
0144
0110
0011
ffac
0000
001c
0057
fffa
0045
fe5b
febd
ff98
ff23
ffc6
0037
000b
ff60
ff72
ff89
0000
fe90
fecf
fed1
feb9
ff03
ff85
00aa
00ce
00d0
0052
0092
007d
0038
ffae
00a2
ffd2
fe58
fedd
ffd7
ffe4
ffa8
ffdf
ff9b
ff78
ffdc
0011
ffab
fffa
fe38
fe57
fec7
ff03
ff3c
ffdd
fffc
0028
0022
00a3
0151
ff92
ff03
000a
ff60
ff3f
0064
ff3c
fe8a
ff8d
ffda
fed6
0017
ff8a
0027
ffeb
ff78
ff99
ffec
fff2
003e
00d6
ff60
0053
ffe1
007d
00a8
0061
ff78
ff39
ff4c
ff33
0103
fff1
ff9e
ff30
fe3d
fe3b
fea7
ffa8
0024
fff2
ffbc
0001
ff64
fff3
ff94
0021
00ec
0044
0008
ffa3
0021
ff6e
0019
ff92
0096
ff7a
ff14
ff53
0064
0087
fff3
ff00
ff10
ff01
ff41
ffd2
ff65
ff4e
ffe3
ff81
ff4a
ff4e
0132
00d1
0042
0005
ffb1
0095
ffa5
ff8a
0005
007a
ff64
ff3c
fe99
ffe2
ffec
001e
0011
fef2
001c
fecf
fdfe
ffc1
ffc8
ffcc
ff23
ff2d
fed4
0039
0158
006a
00ff
0069
0102
ffd4
ffec
ffcd
0006
00e7
ffe8
ffb1
ff73
ff40
ff9e
009b
0080
0009
00a0
0093
002f
ff73
ffe3
ff61
ffaf
ff5a
ff1b
0063
01e3
0059
019a
00b9
0008
fecc
0030
ff15
ff52
007e
006b
0058
011b
ff0e
ff4d
ff2e
005c
0071
00ff
00e2
ff3f
ffcb
001b
ff8f
ffd0
ff8f
ffc6
ff82
0020
001f
004e
ffc5
0038
fef4
0045
ff20
ffc8
00e1
0050
0093
00b4
fef7
004d
ff8a
0005
014f
017e
ffac
ff81
ffe4
ff39
0022
ff25
ffa6
0020
ff3b
0003
0014
ff55
ffc5
fff2
005e
ff8f
ffa4
0098
0007
0045
0098
ffba
0018
ff4d
ff71
0048
0021
ff80
fe86
0081
ffa9
ff46
ff5d
ff63
fefd
ff5b
fe9e
fe73
ff1c
fef4
000c
00a8
ffa2
0080
ffde
013f
011a
007e
00e0
ffb6
ffdb
ff7e
0014
000a
ffeb
ff65
ff0f
fff3
ff09
ffa3
ffff
ff61
ff5e
ff63
ff1e
ff46
ff0d
ff6c
ff7a
ff89
0043
007d
ff57
0072
0086
006f
0047
ffde
ffea
ff4e
ff87
fefa
ff74
ff6e
ff8d
0066
ffde
ffad
ffb6
ff65
ff75
fed6
ff79
fe24
fee4
fefe
ffb8
ffd3
0035
ffce
000e
ffad
ffdb
0003
006f
fef3
ff32
ffa4
ffe6
ff65
ff80
ff65
004b
007c
ffd1
ffdc
ff8c
ff4e
ffa7
feff
feb4
fe16
feeb
feb5
fe85
ff10
ffec
ff1b
0007
0027
ffef
ff16
ff7d
ff4e
ffae
ffa6
006d
ff44
ffe6
ff66
ff63
004f
fff0
0021
ffd7
ff66
ff1b
fe96
feda
fe2c
ff3d
ffef
fe97
0050
0089
ff2d
0020
0095
ff83
ff5b
0039
ffa9
0028
009e
ffb8
ffe7
0076
0013
fed8
0035
ffc5
fffe
ff87
ffa6
ff1c
ffc5
feff
ff31
ff99
0038
ff4a
fff0
007c
0012
0057
007a
0083
0058
ffc9
ffc6
00db
00b3
00a2
0070
0027
ffae
ff71
ff0a
ffe3
ff36
ffb2
ffa6
ffab
ff66
0037
006e
0151
01ae
00cc
01cc
00e6
013c
0148
00dd
0110
0059
0064
0074
0093
0054
0082
000f
ff9e
0010
ff8f
ff50
ff2f
ff75
fff5
002d
0016
0028
ffcd
01c5
0104
01ad
0153
00ee
0120
008c
0027
0023
0059
fff5
ffd1
ff83
0040
ffde
006c
00ba
ff7e
fef3
ff14
ff91
ff0b
ff33
001b
ff4c
000f
feb5
ffa0
ffc4
ffa2
ff56
0165
0145
ff46
ff9c
0029
0090
ffba
ffe4
ffbd
ffcb
0094
0033
00b2
ffe9
00df
ffbd
ff91
ffdd
ff66
0027
0002
ffd4
ff77
ff93
fe79
fe5a
fed5
feb4
ff62
ff8c
fff6
ffe2
ff7e
fe50
fdec
ff78
feb9
fed6
ff67
ffd6
ff87
0006
ff3f
ff60
ff77
0017
ffc2
ffdb
ff33
0027
0006
ff95
ff46
ff6c
ff3e
ff18
ff59
ff3c
fe51
febc
ff20
fe8e
ff3d
ffc7
ff46
ff8a
ff4d
ffc1
ffea
ffb5
fece
ff25
ff0d
0029
000e
ff7e
002d
0021
ff74
ffda
ffb4
ff3c
0057
fff3
ffff
0073
fff3
ff94
ff9e
006b
0063
009c
0022
00cb
ffdc
ff82
ffd7
002f
ff83
ff5c
ffa9
0020
ff6a
0019
001d
ff21
ffed
ff97
ff14
ffbd
002c
fffc
ffbb
0002
ffbb
003f
000d
0004
0021
ff87
0018
ff2e
ff8a
ffc5
ff7d
ffdc
ff72
ff77
ffa7
ff2b
ff92
0022
ff85
ffc7
001d
0052
000b
ff99
0074
0055
ffb9
0036
0065
0070
ffe8
ffbc
ff94
ffb3
ffd7
0094
004d
ffc1
0015
0074
0065
001b
ff95
0088
fffb
009c
ffbf
ffa5
fffc
ff97
002b
ff8a
005b
009b
0018
0037
0007
ffd3
0042
ffef
0094
ff95
00b6
007a
ffe6
005b
005c
000a
001f
ffc4
0066
001f
ff80
0087
ffc7
008b
0015
0084
001f
0085
ffc0
ffc5
ffcd
0094
0005
00b3
0064
00ab
00af
0029
000b
fff8
ffc3
0012
0073
0085
ffad
0072
0037
004f
0084
0059
0012
ff8f
007e
ffe8
ff82
001f
ffef
001e
00d0
00f4
0183
0192
0062
00f9
0026
fede
fefb
ff01
ff05
febd
ffcb
ffa9
ff5a
ff79
ffa0
ffec
ff98
0059
fffe
ffe3
0086
ff81
ffda
006d
001f
00ec
01c1
013e
0086
0019
0070
ff69
ff69
ff78
feb6
fe3e
fd7a
fde6
ff76
0013
ff92
ff19
002b
0062
0029
008c
ffdf
ffdc
0007
001d
007d
0030
002c
0199
010e
0100
0086
0032
fed8
0151
0081
00e9
00f7
ff6b
ffa1
ffae
ff4a
ff7d
ffd2
ffc7
ff8b
fff6
0082
007c
ff9e
ff9a
ffe5
002e
0074
0070
015b
0176
008b
0107
0149
005a
00ed
0216
024d
0345
02f6
01a8
0019
ff1d
fe32
ff89
ff92
febd
ff50
ff3d
fff2
009c
ff95
ff94
0028
ffe2
0086
fff2
00c3
0069
008d
00b1
0135
021b
0291
02e1
0356
02ff
0250
0088
ffe2
fe79
fec7
ff90
002f
fece
fdfd
ff0a
ff6c
ffc3
ff79
ff94
ffff
0073
00c7
ff8d
feaf
fe79
002d
0001
01c5
01cb
01fc
01aa
02ec
0167
ffd5
0006
ffb2
0051
feeb
ff3d
00b8
ff97
fe89
ffb3
0018
007e
006d
0037
0073
ff96
ffaf
fe76
feb5
ff97
0056
0154
01b1
0056
0084
ffbe
ffc2
ff6c
fe60
ff19
003d
0114
ff6f
fe09
ff44
ffcc
fe95
fffe
fff7
006c
ffce
0091
fff9
0095
fed5
ff27
0016
001f
014d
0036
fff2
feb1
fd9b
fce7
fbb6
fc4f
ff19
0045
0110
0215
00db
ff92
ff85
fec7
ff3e
ffb6
fffc
0046
0039
004d
008c
003b
ff6c
fe77
ff6d
ff36
ffd4
ff52
fdb9
fe8e
fcd3
fb62
fbee
febf
009a
0102
019b
00f8
00bc
ffc4
ff99
ff8d
fee7
ff50
ffa1
002c
ffda
ff87
0026
0071
ffe3
fdef
ff03
feaa
ff08
fddd
fd7a
fde7
fcb3
fba2
fe9f
0161
013c
014f
005f
00e2
00d1
0021
fe7c
ffb4
ffae
0009
ff97
006f
002d
ff9e
ffa8
fffe
fe86
fe07
febb
fef9
fee5
fe64
fec2
feb7
ff0a
fff6
00e2
006d
0138
0070
0047
00c0
ff84
ff06
ff2b
fe6d
fe82
0024
ffbe
ff7f
0010
003e
ff7c
fffd
fea6
fdd4
feba
ff52
ff2b
fe60
ff1b
ff9b
005c
00e9
0090
0057
00d1
fff2
010a
004c
ff83
feb9
ff06
fe84
ff4d
fff0
ffe1
0087
ffb3
ffdd
0060
ffbb
ffc4
fea2
0050
ff9c
febb
ff1e
ff8b
010e
0081
0083
fff5
0120
0012
ffa4
004e
ff37
fe45
ff34
0024
ff19
ffb8
ffbd
fff0
ffae
fffa
000f
00a5
fff3
00b0
0069
002a
ff3e
ff14
fe86
ff38
0067
0068
0139
0041
0088
ffd6
ff8d
ff61
fe99
fe58
fe93
ffb5
feda
ffbd
0088
ffe5
fff0
0069
0009
005c
0080
0114
002b
ff38
fe8e
fed4
fecc
0023
00e1
00fd
01df
0113
00b3
007c
001f
fe1b
fe40
fda4
fdc5
fda6
fee8
0079
00c1
003c
0000
0091
ff8d
ffbd
0132
0145
0098
0061
fff4
ffae
ffd8
0085
0090
01ab
0188
0082
015a
ffe0
0039
ff5a
feb2
fdf8
fe40
ff46
ffc1
001f
0107
ffe3
0010
ffc7
0076
ffd4
0113
016f
0056
00c1
0178
0100
0014
0031
00da
01e2
016b
0095
0074
ff98
feeb
ff52
ffb4
fe74
ff7b
0064
0086
0033
012b
fffd
001f
0006
ff99
003d
0153
01d3
0066
011e
01b9
00fb
008d
ffe3
006c
011e
007c
009c
0018
ffd6
fe80
ffd1
0062
ff99
ffe6
0061
00c0
0105
0083
ffee
0020
0063
ffa2
00c5
008d
014b
00bd
ffed
ffb9
ff67
ff4c
ff71
ffb9
0006
ff50
00aa
ff8e
0035
ffe4
0058
0132
0031
0079
0178
012d
0030
ff8f
ff95
005a
ff97
002a
ffc8
0049
00fb
0195
015b
003e
ff7d
fea7
ff94
ff26
ffa4
fee8
ffcd
0031
000f
fff0
005a
0106
018e
0236
01e2
00d5
005b
0058
001a
006f
ffc4
002a
003b
0081
0063
00d6
0086
00e0
0008
fe69
fe8b
ff82
fef6
ff5c
001a
00ed
0001
0073
00b5
0226
01b2
01e9
0246
011c
0028
ff5f
004b
ffa2
ffb3
0096
0091
004f
00d8
0079
0066
ff6a
ffde
ff09
ff87
ff9a
ffa3
0016
0038
007a
0089
004d
00d7
010c
004a
0170
0126
0098
002c
0028
ff99
ff99
003a
ffbc
ffe9
ffa1
00c8
005c
0041
ffe4
018d
0094
ff0c
ff6a
009b
007e
00b5
0059
005a
0083
0155
ffd8
0069
008d
ffb1
fff4
0092
0038
ffb5
0087
004c
0005
0072
0098
0012
0007
ff8b
006d
00b7
01bf
00ea
0104
0037
00f6
0123
0104
01d4
0193
00b6
00d6
00c6
00b2
008c
ff9f
0059
ffd1
ffc6
ffde
0097
004f
0059
0075
0016
fff3
006e
ffa9
ffb1
0052
0063
0032
004f
00a5
0083
ffdd
ffa2
ffda
ffdb
008b
005b
0012
ffba
0031
0099
0055
ffbc
0064
ff91
ffca
ff94
004c
0036
ffd9
ff51
ff7e
0051
0012
0012
ff5b
ff88
0015
0011
ffe3
ff6d
ffb8
ffd2
ff93
ff72
0019
ff61
ff69
0017
000f
ff8f
ffa0
0029
ffa3
0044
0008
ff72
0053
ff44
0052
003e
fffa
ff61
ffc9
004e
ffe2
0031
ff08
ffed
ff9d
ff91
ff86
ff82
ffbb
0043
0038
fffd
0055
ffdf
ff79
ff8f
ffa6
ff45
ff4a
ff66
ffb2
ff68
ff6e
ff99
ff47
ffcf
009e
ffe7
ff69
ffa7
ff5b
004f
fff9
0001
0045
ffd3
ffe8
002a
ffae
ffb4
ff35
002c
003a
0034
ff4b
ff96
ff47
0016
ffab
fff5
0014
ffb2
ffac
0021
019f
fff1
0038
010a
014b
01c8
0127
00ee
0145
00d8
00a5
0010
001f
005b
005c
ffb2
ffa9
fff2
ff62
005a
ff8f
ff59
ffa8
ff41
ffe1
fe8f
fee2
feee
ff24
ff1e
ff89
ff25
ffdf
002b
ff81
0015
004e
ffba
ff9f
0031
0076
0072
0003
ff89
ff75
ff9e
ffdb
ffd2
ff6f
ff69
ff7f
ff43
ffd3
ffdf
fff8
0031
ff28
ff4c
fea8
fed5
fed4
ff68
ff68
ffcb
fecd
fe53
fd9a
fe09
ff0c
ff47
ff5f
0010
001e
001b
ffb7
0082
0096
ffee
009b
00a7
0052
0101
0080
ff62
ff85
ff40
ffa4
005a
ff45
0042
fea7
fea9
fe49
fd37
fd90
fedc
fec7
feea
fed9
002f
ffd9
ff76
ffdd
ffef
ff7b
ffb9
ffe8
0032
0092
00d8
002b
ffcc
ffab
feda
ffce
ffc0
ff7d
ff27
fec8
fe68
fe7a
fd41
fdba
fdb9
fe2e
ff84
ffe5
0084
003b
0002
ffec
ff96
0068
ff7d
ff8d
007e
feda
fffd
0072
ff8d
ff38
fe5e
fe0e
fe19
fec0
ffac
ff00
fe8e
fea8
ff9d
feba
fe0e
fe82
ff6c
ffa5
ff0a
ff44
004d
ff73
ffa0
ffc9
0023
0015
0044
0091
0088
0085
ff2a
0068
001e
ff35
ffc6
ff8f
0004
ff94
ff85
ffbe
0080
ffdc
fea3
ff34
006e
ff77
ff85
ff9f
ff9b
ffd7
ffa0
004d
0049
0027
fff1
0058
002e
011c
ffc4
ff55
ff00
fee0
0030
0036
0115
0192
00f7
0003
0171
016b
0093
ffc6
0056
00e6
0018
ff62
0000
fffb
0013
002b
ff9b
000a
00bb
004e
00a1
00e3
0137
005e
00fc
0025
008d
014b
02ae
0224
0154
00fe
0118
0145
00a3
ffeb
feb7
ff9e
feee
002e
001b
002e
0059
006b
ffde
fff5
0018
000b
0193
00eb
01f9
0104
0184
00a9
004c
00fb
01d6
014d
016a
01aa
0180
0161
01b6
ffc1
fe2a
ffee
fffc
ff6f
0059
ff8a
ff82
006d
0132
00f8
013a
0088
0193
0014
018c
00f7
01f8
0043
001f
00df
00d8
010c
018e
017e
0159
0141
0142
0119
ff58
ffe3
ffb7
ff85
0063
006a
0041
0086
00a8
0101
00b1
0026
0039
00ec
006d
008a
011d
001a
ff6a
00e3
00d0
0058
010c
01e5
01c2
0218
01d8
00f3
ffc4
fef4
ff0d
ffa7
0013
0031
ffef
0088
0103
0090
00f6
009f
ff56
ff12
001b
0174
007e
ff21
ff64
003c
0019
010e
0145
015f
0281
0166
011e
00e4
ff39
ffd3
ff77
ffb1
0035
ffab
ffbe
ff49
005c
0001
003f
007b
ff9d
feff
ff10
0008
ff9b
ff89
feaf
fff3
ff23
007b
0189
012e
01af
0168
01d3
0099
ff05
ffc8
ff8d
ffab
ff74
000d
ffb9
ffcd
ff5e
00f7
ff8c
0050
0124
ff8a
0038
ff5a
fefe
fed7
fe36
ff80
ffbb
021d
024f
0062
004c
01e5
010f
ff8f
fed3
ff0e
004b
0009
ff66
0046
ff78
ffde
ff42
0080
009c
011b
01e8
0089
005f
00df
ffee
ffc5
ffa7
ff5e
011b
014c
0116
0054
007b
018d
006b
feb2
ff08
fed4
ff8e
ff7d
004f
0011
0071
0071
ffa6
ffb0
ffca
ff71
00bd
01a6
ffc6
001b
ff43
ff6b
ff98
fede
0032
01dc
0134
ffd0
ff4c
ff17
fe4b
fee8
ff3c
ff5e
0038
ff8d
ff83
ff56
001d
ffe8
fe9c
ff40
fd7d
fe1d
ff3e
00fa
003c
ffe1
ffa2
ff8d
fff6
ffb4
ffde
0142
ffaa
feae
feac
fe5c
fe6f
fe6e
ff44
ffc5
ffbb
ff45
ff5f
ffef
000d
ff36
feb5
ff5c
fd71
fd36
fea7
ff08
ffad
ff44
008f
ff90
ffca
ff8b
014b
002c
ffce
fee1
fedd
feaa
fe74
fdfa
fed2
ff44
002c
ffaa
003f
000c
ff30
0000
ff5f
fd71
fd3d
fda5
fdf2
fec5
ff85
ff46
ffe3
ffc0
ff9f
001f
00ba
ff5f
fe01
fe4b
fd78
fded
fe9f
fee0
ff67
ff41
ffb9
001a
ffc6
ff69
0049
0065
0038
ff6c
feb3
ffc3
feff
ff58
ffc8
0050
ff24
ff18
ff85
ff7c
fe9d
fe88
fde3
fdf0
fdce
feec
fe42
fe72
ff8a
0022
ffe7
0003
0005
ff67
000c
003b
0051
0053
0042
00c9
ffb2
fff0
00b8
fff0
ff84
ff81
0090
ff06
0050
007f
fe52
feb1
ff4e
ffb9
ff35
ffa4
ffde
0058
ffbd
001e
0059
ff58
fff9
ff97
ffa1
003e
000c
00e1
001c
ffeb
0091
0294
00ff
0052
0018
ff7e
0038
002f
ff8c
ff7c
ffb6
ffe8
ffee
002e
0055
002a
ffa0
ffff
ffe2
ff78
0028
fff8
ffd4
ffb0
0027
ff9f
ff8d
004d
006b
00f8
0077
0111
ff97
fff2
007b
ffe2
002a
006f
ff8a
0090
0038
fff1
0062
ff8c
ffef
005c
ffeb
003b
002b
ff50
ff58
fff6
ffd1
ff32
ff6a
ff9a
ffad
ffc7
ffd8
ffd1
ff82
ffdf
ffaf
ffe3
ff9f
003f
ffc7
ffc1
007b
ffed
0038
ff65
000b
0058
ff83
0014
ff30
ffb0
ff7b
ff74
ff5a
ff8d
ff7a
ff86
ff8f
ffba
ffa5
ff9f
ffd3
ff3f
ff61
ff68
ff67
002f
ffbe
ff2f
ff4e
ff86
ffc4
fff8
ff2f
ff70
ff36
ff4c
ff67
0031
ffb6
ff95
0021
0022
0035
fffe
0020
ff79
0021
ff65
ff2d
0016
ffd9
ff90
003b
ff99
ff7d
ff7e
ffb5
ff53
ffa6
ffdf
ffa6
ffd9
ff86
0016
ff94
ff32
ff90
ff49
ffc6
fff3
0022
ffef
006f
00b7
ffb8
0018
0142
0091
0009
0007
ffe2
ffd3
0064
ffc8
ffa8
ff44
ff70
ffd4
ff77
0040
ff80
0036
ff8a
ff1e
fff3
ff69
ffa1
ffcd
ffd4
000c
0004
0060
ffb2
ff61
00d7
ffea
002c
ffe7
ff54
0033
ff7c
0023
ffe6
0083
0010
ff4b
ffac
ffe3
ffc7
ff29
ff78
ff88
ffef
fff7
ffe2
ffda
ffbb
fff5
00f7
feb9
ff80
0010
ff61
fe75
ff64
ffcc
ff5f
0030
0002
ffde
0093
ff80
fec1
ff44
ff94
ff95
ff73
ff9d
ff5a
0037
0002
ff68
ffa7
ff7f
ffba
ffa6
ffc2
fee5
ff12
ff16
0089
ff84
ff7a
ff42
0036
fffd
ffaa
0055
0066
014b
0014
ff3e
ffa9
000a
ff6a
ff7e
ffd1
004c
ffcb
fffc
ff8f
ffcf
fef0
fef7
fe3d
feb7
fec3
fec0
ff07
ff5d
fee3
ff2e
fe39
febe
febb
ff03
ffd2
00b9
00a8
ff04
ffc1
ff34
fff6
ff3c
ff43
ff2d
0061
ffed
ff78
fe91
febd
ff09
fddc
ff4f
fed4
ffb5
ff17
fef8
ffc1
fff3
fecf
fec4
fec8
ff28
ffcd
fef3
ffd6
fff0
0021
ff6d
ffe9
fffc
002e
ff37
014b
0067
ff0b
ff99
fe6e
fff2
fee0
ff1e
fe92
ff34
ffe5
ff97
ff69
ffb6
ff67
fee9
ff85
fe6c
fe4a
fdb8
fef6
ff81
ff95
ff69
ff9f
ff61
ffd6
ffb0
ff93
ffeb
fe39
ff3d
fec6
fefb
fe91
ff09
ff6e
ff93
0022
001c
012d
00f7
0092
000b
ffce
ffdc
fe2d
fdfe
fd86
fec3
ff94
ff72
003a
ff7d
ff73
ff5c
ffbd
ff71
fe64
ff88
ff83
ff12
fe3f
fe9c
fff5
ff69
0011
00e5
0100
00a2
002f
ffa9
ff43
fece
fde0
fda3
fda9
fdae
fe73
0013
001a
ffdd
ff45
ff2b
feaa
ffbe
ff17
0036
ffe7
0000
ffb9
ff45
0029
fedd
ffb3
0098
0037
ffa9
0028
00c8
ffaa
ff75
febf
fd59
fd16
fdee
ff58
ff44
ff87
0029
ff10
fe55
fde1
feea
ffc2
0086
008e
00da
00f2
0165
00e7
ff91
ff90
ff3b
ffd3
ffe2
ff41
0063
ffd8
00de
ff7f
ff46
ffc3
ff00
fe9a
0024
ffc7
ffbc
000b
feb9
fe23
ff10
00c8
0073
00ae
0134
00eb
01b8
0087
00c7
ffa6
010f
00bd
00d9
001a
00bc
fff4
001c
00f2
001b
00bd
ff82
0015
ffb9
ff8f
ff71
ff1a
0004
ff9d
006c
ffb3
00d0
0174
01a7
00de
0126
014d
00fb
00f9
00c7
0120
0057
00ad
00ad
ff32
0059
00c3
ffcf
0043
0055
ff2a
ff9a
0013
ff6c
ffb1
005a
ff17
ff97
feea
00fb
014f
00c8
0066
00f0
01b0
01b6
0111
00dd
0125
0144
fff6
0026
ff9d
0011
005a
00bc
ffb2
00d6
006a
0000
ff3d
ff7c
0001
0045
ff55
ffb8
0077
00d2
00a8
00bf
00e9
0108
00dd
014d
01d7
017e
016a
010d
00c0
00b0
0068
0199
0004
007e
fffb
017c
ff86
0009
fff8
ff87
0080
ff2c
ff9f
ffe8
fff3
ffd1
006e
0057
0119
006a
0041
0012
014b
0176
01ba
00df
00e9
fff4
00b6
0150
003f
ff96
ffc8
0013
ff61
ff75
0011
ff55
0052
008a
00aa
0081
ff25
ffac
0000
ffe9
ff78
ffab
0145
00c6
007c
0098
01d0
012c
0092
ff76
0097
012f
ff11
ff64
fffb
ff81
ff94
ffa0
0036
0024
0024
ffe8
00f9
009b
ff82
0017
ff85
0041
004b
ffe9
ff43
00c7
0111
013b
0188
00ad
0058
ff86
003f
0035
ffb0
ffc6
feb7
fff2
ffcd
0040
0041
ff78
ffb4
0053
00af
ffda
ff79
0081
ff65
ff8f
ffe7
00be
0017
ff65
00a4
007c
00ae
0001
00bb
0037
005a
00ba
ff2d
ff1e
ff02
ff97
ff46
ffdb
fff4
ffa3
ff59
0098
0071
0035
fec6
ff64
ffc0
0022
fff7
00df
003d
007a
00b5
006b
0000
00f8
ffee
00fa
0061
ffec
00a4
0000
ff1f
fed0
ff88
0031
ff82
ff6f
ffd5
ffb0
0073
ffd6
ffa6
ff66
fff1
ff8f
0082
00b1
ff50
ff56
fefa
ffd9
003b
ffb3
ff92
00cf
ffdd
0030
ff53
fece
febc
ff49
ff1f
000d
001f
ffb9
ff99
ff76
ffc1
ffa3
ff71
ffa5
ff78
00a3
ffd2
ffcc
fff6
ff76
0045
ffc0
ff5b
ff78
000a
00b5
00b3
00ba
ff51
fe76
fe35
ff6a
0036
ff40
ff40
001b
ff83
ff5d
ff0b
fefd
fec7
ff00
ff13
0023
feb3
ffc7
ff43
fea9
fefd
fe76
fff0
fefb
ff91
ff86
ff4b
fff5
fe84
ff69
fefa
0043
ffaa
ff39
ff78
0045
ff81
ff96
ff7e
ffcd
feeb
fef6
fe6d
fe51
fecb
fe17
fd91
fe3b
fd98
fe03
fe09
fdc5
fe75
fd85
fe17
fddd
fe6e
ff4a
fedd
002e
ff79
0017
ffd7
ffc0
0009
fff1
ff21
ff9b
fef4
ffb7
fef4
ff0c
fe83
fde0
fd3f
fd47
fcf9
fd26
fda8
fe1c
fd94
fe48
fea4
ff67
ff03
ff9f
ff62
ff83
ffd4
fffd
ff5d
0025
ffd0
ff47
ff5d
0004
ff78
ff6d
ffa2
ff17
fefb
fffe
ff41
ff2e
feb3
ff78
ff7f
0019
ff3a
fefd
ff66
ff13
ff1f
000c
ffe1
0045
ff7b
ffb2
ffd3
ff1e
ffe0
ff7e
ff44
ff97
ff67
ff50
ff22
ff37
ff98
ff4d
ffcf
ff58
000e
ff78
ffc5
ff3b
ff17
fff1
ff10
ff3c
ff23
ffa7
ff87
ff38
ff69
ffd0
001f
fff1
ffa0
ff25
ff8f
ff5d
ff6c
ffb9
ffe3
0006
ff0e
ff30
feef
ffb9
ff3c
ff86
ff39
ff9b
ffb8
fef2
ff4e
ffe3
fff3
000e
0014
ff72
ff29
ff6b
ffd8
ff6a
ff54
ff2d
ffd9
fff4
fef2
ff95
ff57
ff5c
febf
fe8c
ff41
ff09
ffab
fee3
ffab
ff0e
ff65
fed5
fed2
feca
ff92
ffd4
ffab
ffee
0029
ff87
fff8
002a
ffb5
ff14
ffeb
ffda
feb8
fec6
fea4
ff36
ff32
ff48
feb7
fde7
fe9f
ff77
0091
0012
ffed
ff3b
ffd7
0007
ffa2
ffa5
0034
ff2f
ffa3
ff54
ff2c
ffd7
ff24
ffe4
ffa5
ffa4
ff6e
ff70
fefb
fe12
fd3d
febc
ffdb
ffba
0004
ffd0
ffc1
0108
0172
ffdf
ffd0
ffaa
ff20
ffca
ffd1
0040
ff15
ff6d
ff4a
0002
0019
ff0d
ffcc
ff8e
fec8
ff49
ff57
ffd2
0008
015b
0093
0070
0079
000f
0055
002f
ff84
ff3a
ffdd
fe74
fd5d
fd8c
ff26
ffe7
ffc5
ff0d
0025
ff99
ff86
ff8c
ff65
fead
fe91
ffa6
0030
014f
ffa3
003c
018a
00a6
0007
00f1
0079
00ac
007e
0028
ffbc
ff83
fdea
fe3c
ff69
ffe3
ffe5
0008
ffe5
ffa9
ffa7
fff0
ffb4
fef4
ff4c
ff12
010a
00ff
ffb8
0091
0057
013d
0037
011a
012e
00b2
00c3
004a
ff70
ff48
ffc2
ff04
00f7
0100
ff1f
ffb1
ff89
ff6a
ffaa
0065
fee5
fe82
0044
0009
011a
0166
00a9
010d
ffbf
0020
0032
00dd
0057
fff6
00b4
0091
00e1
001a
0024
ff9f
002e
005f
ff6d
ffca
ff9a
ff18
ff8e
ff53
fecb
00aa
017a
0133
0074
00b0
0111
0006
ff7b
feef
ff57
ff9c
ff67
fffa
006b
0097
0121
011f
005e
ffb0
001d
ff8d
ff2d
ffd6
ff2a
ff1d
ff0c
002b
ff6d
010b
01f1
0160
00a9
0084
ffbd
fed3
feae
fe58
fed3
fe51
fe63
feee
ffb5
00e9
01dd
00ef
018f
0052
ff8d
ff9f
ff93
ffc4
ff3c
ff17
ff54
ffda
0069
017b
020f
01e5
01d5
007d
ff5b
fee7
ff07
ff7e
ffec
ff71
fe85
fffd
000d
0166
0194
01e7
022b
008c
0068
0091
0000
fff5
ff29
ffb9
ff95
ff57
00c5
01a9
0133
0144
00ab
0089
ff99
ffb9
ff12
ff5d
ff42
fef1
000b
001e
0064
01b4
0258
0179
0224
00a5
ffa3
ffc2
0071
0008
ffc0
ffba
ff62
ffa5
016c
01b2
00c4
00c5
014b
0021
005f
009d
ff4e
ff40
ff29
0008
0030
ffe8
00c4
00b4
01e9
019c
01b4
0092
ff20
0097
ff65
0009
ff3b
ff3d
000f
ff94
01e2
0097
0115
00eb
00ad
ff84
0005
005b
0095
005b
ff3d
002f
ffeb
0094
0187
01bf
0246
fff9
008b
ff21
fecd
000b
ff72
ff99
ffa2
ff99
ffb6
0002
011d
017b
00e7
005b
ff73
ff01
003c
00bf
0104
ff5e
ffea
0056
ff7d
0182
0100
01bb
0167
001f
0045
ff4b
fe30
ff46
0008
ff80
ff22
ff46
fefb
004e
00ba
008e
0177
0127
00bf
ff2e
0084
0012
01ee
ffc2
fee8
0089
ff8f
026f
022a
0121
011b
ffc8
ff56
ff03
fea8
fefd
ff83
ffbd
fffa
ffc1
ff00
ffa0
ffb8
0068
010b
0177
0096
00ac
00a0
0078
0006
002d
fef6
015a
0185
0163
0185
0022
ffef
ffb2
fe75
fdde
fef1
ff18
001a
fff1
ff61
fff1
ff1e
ff90
0028
0016
0195
01c8
ffde
ff1c
010a
002c
ffe7
ff01
ff59
010b
013d
0192
ffdb
0061
ffc2
ff95
fee0
fe3f
feb1
ff69
ffac
ffca
ff67
ff39
ff49
ff10
ff7c
00c2
0095
00cb
fff0
ff3f
ff6e
ff6b
febe
fe70
ff5f
0016
0086
0083
0042
0058
feee
ffb8
fefc
fe27
ff08
ff23
001f
ff06
ffa9
002a
ff90
ffdb
ffad
ff3c
ff6a
ff8b
fe84
feac
ffcb
fee9
fe18
feff
ff30
000c
ffb3
ffc8
ff5b
ff3b
fef6
fef1
fe3c
fe83
ffc7
ff63
ffb7
ff86
ff10
ff7c
ff80
ff1e
ffa5
fe88
ffc4
ff34
ff50
ff50
feed
ff63
ff93
fef9
ff17
ff2c
ff2d
fefd
fe59
fe9a
fda5
fdba
fe7d
fe42
ff59
feed
ffe2
ff72
ffdf
ff94
ff69
ff31
ffca
fd7e
fefd
ffb4
ff29
ff15
005a
00c4
005e
ff5f
ff66
fef3
ff59
fda9
fdc9
fe7c
fe63
fecf
ff38
0023
ff21
fee0
fff1
ff38
ff4d
002b
0008
ff95
ff05
fe0c
ff6f
009d
ff36
fee7
ff35
0051
ff56
006c
0069
fec1
fe97
fe30
febc
fed0
fea7
0054
0066
0038
fff5
ff53
ff23
ff97
ffba
ff4c
ff32
ff3b
ff9a
0021
ff45
000f
ff97
feda
0060
0170
0074
0066
ff3e
ffdf
00cc
ff18
fead
ff71
0070
0098
ff9d
fffa
fed7
0025
ff93
001a
fff1
000e
0008
ff54
ffb7
00c3
008e
0079
ffa3
0043
021f
0255
0048
0133
01b0
0128
014f
ffe2
0003
00c8
0145
0080
fef7
fec6
ff78
ff89
ff69
ff20
ff0c
ffce
0007
ffb5
003b
003c
ffcd
ffff
ffef
00bd
013a
0086
01ce
0146
01f8
0015
00cf
fff8
ff8a
0014
0091
0072
0042
ff55
ffaf
ffa3
ff27
ff42
ffd0
ff4c
ff73
0007
002f
ff22
ff8f
002a
ff62
ff7e
ff4c
fff8
ff45
ffdd
0015
ffd8
ff37
ffbd
ffea
ff8b
ff59
001b
fff2
ff7e
ff14
ff6f
ff1c
ffe1
ffbf
ffda
ffa4
005c
ffe3
0075
ffe4
ff69
0044
0011
ffb4
ff9c
0036
0019
0059
0003
0073
ffd9
ffd2
001e
0047
ffc6
0059
ffe1
005e
006b
0078
ff7c
0067
007f
ffe0
0063
0009
ffec
00a7
0069
0059
ffa5
ffc4
00a4
00b7
00cc
0086
008d
010b
00a8
0039
00cb
00aa
0064
0069
0021
ffef
0048
ffb5
0042
ff6d
ffb3
ff67
ff75
ffcd
ff93
0092
0086
0070
00e5
002d
00f9
0139
0063
013a
00d7
0081
00af
0018
0040
00f6
0029
00f8
0099
0044
ffd8
ffee
002a
0045
ff79
004c
ff8e
0064
005a
fffd
00af
0092
00dc
ffd5
011f
0106
02a6
012f
0125
00f0
0089
feed
0016
004e
0014
001e
ffcb
003d
ffa2
ff8a
ffce
ffc2
0086
0084
ff7a
005e
ffde
006a
00bb
002d
0153
fff9
ff70
ff21
fffa
ff42
fecd
fefd
feb9
fed6
ffd1
fecf
fe9e
fe65
fe5a
fe5d
fed4
ffcc
fff1
004f
ffc4
ff92
ffe7
ffae
ff48
0011
ff46
0060
00a5
0033
fe82
fe94
ffd8
0042
ffa6
ff8c
000b
ffff
ffa0
fdac
fe60
fe2a
fea6
fe01
ff75
000b
000a
ffe6
ffc0
ff8c
009e
0015
ffdd
0020
005c
ffbc
feb0
ff82
ff8e
ff91
005a
fff3
ff58
003c
ffe4
fefa
fe46
fe49
fecd
fee3
fe0c
fe7c
ff6d
ff5e
ff90
ffd5
002b
004f
0029
00d0
00be
0057
feff
0014
ffb6
ff3d
ffdb
0000
0021
00bb
fffb
ff8a
ff19
feeb
fe0b
fe6e
fe28
fddd
fdc8
fedb
ffa1
ff73
0015
0040
0000
0082
00b6
0157
0017
ffd0
ff9b
00d5
0082
ffd3
fefa
00ca
00be
01b2
00fb
ffd0
ffe4
fef8
fe84
fed9
fe74
fdf2
fe1c
fe2d
fe0d
ff86
fff7
ff7f
ffe1
00a4
010b
0150
0160
fffd
00c2
0037
ff9d
0086
ffb5
0087
016a
01c5
0020
ff4e
ff36
fed5
ffd1
ff66
feb5
fee4
fdf4
fdc2
fdf4
ff21
0037
ff8b
ff80
0107
0036
0084
011c
008a
0085
ff4f
ff0f
0024
fffb
0015
01ea
018d
ffa9
ff3d
004c
fff0
0030
0072
ff54
ff23
fe53
fe39
fe51
ff68
0009
0020
ff93
ffe3
0115
ffeb
ffc7
ff23
0043
fef7
ff55
0083
00c2
ff89
ffc4
fee9
fee7
feb0
000b
00c7
014e
00a8
00f0
ff2f
ff69
fefe
fd6e
ff2b
007b
ffcb
0063
ffbf
000b
0030
ffe4
0015
ffac
fff5
fff0
006a
007b
ffd2
ff68
fe44
fe81
ff88
001e
00e6
00f7
00b6
005c
ff2b
001e
005a
fef9
ffb7
006d
0058
ffca
0031
ffec
002b
ffde
00fb
ffea
ff39
0086
0093
010b
ff3d
fee8
fe79
fe28
ff45
ffba
002d
00d8
ffa1
ffca
00f4
01a5
0235
ff2c
000a
0081
003b
ff8a
0004
0046
fe8f
0086
0055
0029
ff25
ffaf
0068
008a
ff69
feb1
fdd0
fee4
fe6d
ff3b
0083
ffdf
008c
0161
0190
01d7
0257
fff1
ffc4
ffe7
0057
0049
ffaf
ffa3
fee8
0028
ff2e
00d5
fe9f
ff62
00bb
008a
ffcc
ff34
fe84
ff03
fedf
ff00
0003
0076
008c
0122
0117
015c
0262
00ed
001d
ff72
0058
002e
0032
0053
fed1
ffe0
fee0
ff87
ff76
fff9
0040
0054
fee2
fdd9
ff5b
ff72
004a
ffc7
005c
00c3
0033
005f
00db
007e
015a
011f
00fb
0013
ffe0
fffb
fff5
ff98
ff97
ffb2
fdf8
fe82
feb8
ffa3
0067
00d7
ffb2
fe8e
ffae
ff92
008e
006b
0021
ffe4
0016
009c
00f0
0038
012d
011c
009f
ffcf
005c
0060
0006
ff14
feb9
fe87
fe73
fdd2
fe58
ff17
007a
ff9c
ffdf
ff71
ffc5
0013
0048
003e
013c
0015
ff8d
ffde
0120
ffcb
ff7b
0134
0063
ff8b
006f
ff98
ff6c
ffdd
ff75
ff42
feb3
fea5
ff30
ff1b
004d
00e0
0156
010e
0120
0076
ffcb
0031
ff9e
ffad
ffda
ff56
004d
ff82
ff1f
0000
ffe7
ffeb
005e
0042
0038
ff5c
ff31
ff74
fe2d
ff78
ffcf
ffbf
0096
0163
025e
0250
0209
0085
ff46
fed8
ffb7
fed2
feef
ff80
ffe3
ff02
ff47
0000
ffb5
ff88
0076
0000
004e
006e
004a
ff84
fee9
ff1d
ff71
ff9b
004e
017c
019f
0172
00e9
ffc9
ffde
fdf4
ff67
fee1
ff83
ff3e
ff3f
fee4
feab
ffa5
0038
ff70
001f
ffb8
0092
000b
001d
00a4
ff8e
000d
00ee
01a7
012c
008e
00af
0100
00a9
00b6
ffb6
fe8f
ffd3
fed6
fedb
fee8
ff4b
fe9d
ff66
ff6e
ffcb
ffae
ff94
0031
0039
ff85
ffe5
0037
00cd
0038
ffc4
00cc
0095
00f0
00c8
0000
ff80
ffef
ff88
ffec
ff28
fe54
ff22
ff09
ff6a
ff1d
ff8a
0033
0066
ff79
0048
ffaf
ff7d
ffa1
ffe4
ffae
ff41
fed2
fe54
ff43
fd98
fdd0
fea4
fed9
0015
0076
ff66
003b
ff32
ff28
fec8
feee
fece
ff5c
005a
ffdf
ffa5
0013
0010
0048
ffec
0078
000e
ffbe
ff62
feee
fef8
fe9a
fc7f
fd4a
fef4
fe22
feaa
fe46
fee7
fed6
fec8
0017
fecf
ff9c
ffd1
ff3f
001d
ffe4
ff8e
005a
004e
ffc9
006f
ff83
ffde
ff14
ff50
ff93
00ff
0087
ff99
ffa7
fffc
fffc
0039
006b
0008
ffcb
006e
0033
ff66
001a
0027
ffe0
ff85
ffd8
fff2
ff82
0014
fff7
ff72
001f
ffdd
ff95
0075
0043
001e
fff7
0010
ffa5
007e
00d2
fff2
ff88
0073
0071
fffa
0074
0006
0081
0081
0031
0034
0044
004c
ff9d
ff73
0037
0051
002c
ff98
0030
ffa9
fff2
0013
ff5e
006b
0034
ffc3
fff5
0031
ff87
ff81
ffc9
ff92
ffe1
0030
0018
0068
004f
ffe1
0001
ff70
ff74
ff62
ff90
ff55
0015
ff68
ffd4
0023
ffb3
ff65
ff73
ffb8
fffa
0021
ffd7
0014
fffe
ffcd
0047
0014
fff0
ffe7
0027
ffb9
0031
ffa9
0053
0033
0067
ff88
ffca
0065
ffbb
ff7a
0037
ff4d
ff7c
ffdc
ff8c
fff7
009e
001d
00b4
0023
00f7
00da
0076
004f
0086
00ac
0058
004c
0067
0004
ff80
ff7b
0044
ff4c
ff91
0055
0030
0040
0030
ff63
000a
ff20
ff9b
0062
ff8a
ffba
000c
ffc2
0049
ff5c
009d
00e6
0110
ff92
ffd0
007e
ffb0
0038
fff7
ffa3
ff74
ffa3
ffda
0047
ff7a
ff3d
fee0
ff13
ff16
fee0
ffd9
ffa0
ff3d
ffbf
ff9f
001c
0097
0052
00ce
00f7
009f
ffab
005a
0022
0026
ff0f
ff6e
0038
ffa7
ffe6
ffbc
0045
ff2e
ff6b
fe99
fed2
fe37
fe38
ff4e
fff2
008c
00a5
0103
00ae
ffed
0100
0200
01da
01ba
0240
0261
00f6
0076
0041
0089
ff9d
0011
ffca
003e
0030
ff13
ff54
ff1b
ff6e
ffae
ffa6
ffa2
00a7
0113
00df
0062
01bb
01a7
0116
0182
018c
02a3
0132
00dc
016d
0100
0160
01d3
00ae
0040
ffaa
0046
ff45
fee7
ff05
fec7
ffc1
ff4d
0028
fff8
019f
0105
006d
0155
013b
021c
01ec
0137
01e9
0157
0146
01c9
0144
010e
006f
00a1
ffa6
fff3
fffe
0043
ffd6
ff36
fec2
fe0b
ff51
fefb
00f0
00c9
00b6
0156
0111
01bd
018c
00b4
0020
ffac
0032
ffed
fff9
ffb4
fffa
00f4
004b
0020
00b8
ffa6
0058
005f
ffb5
febe
ff7d
fe33
ff52
0017
001b
0079
0136
0164
0015
0157
ffe2
fe27
fe0f
feee
fe4d
fe5d
fe49
fedb
ff4b
009a
0123
0191
0057
004d
0017
ff84
0017
fecf
fede
ff43
ffa9
ffb7
0089
0051
0092
0100
0044
ffce
ff77
fd89
fe0a
fe74
fee9
fe19
fdaf
fdf5
feb6
ff95
0100
0052
0054
ff4e
ffb0
ffed
ff73
ff77
ff43
002e
ff9e
0015
ff65
0075
0052
0032
003d
007a
ff01
fde4
ff7d
fdf4
fe6f
fef6
fd70
fe49
fd9b
ff19
ffbf
0007
ffa0
ffe4
000f
ff85
ff41
ffd9
ffbd
febd
fff4
ffc6
fffd
0116
ffe7
00c6
00a9
0047
ff43
fec8
fe80
ff9b
fedf
ff0f
fea3
fe2a
fdc3
fe57
fec6
ffdd
005d
0003
ffc3
ff9f
ff7d
ffdb
ff92
ff6a
ff00
fffb
ffff
0006
0014
007c
0114
00b7
ff56
ffc9
fef0
fed5
ff4f
0014
ffbb
ff60
fdec
fdd7
fecb
ff82
ff65
0058
002b
ffd3
0031
ff98
feeb
fda2
fe5d
ff38
fed3
ffb7
007e
0042
ffd9
ff4b
ff23
ff95
ff10
fede
ff5a
fed5
0045
ffc1
ff3a
fe18
ffe7
ff9e
fff2
ff73
ffc0
ff9d
ffc9
ff83
fedc
fe41
fede
0009
ffa0
0037
ff45
0005
0107
ff51
ff42
fef2
ff65
fed7
ff67
fea6
008c
00bb
fe7f
ff4e
000e
ffa6
ffaa
0006
ff8b
ffb4
ff49
000f
fe7d
fee4
fe62
ff29
ff63
ff33
00f3
012b
009f
003f
ff32
ff3c
ff49
fead
fe5c
ff74
00b7
00c4
ff9f
ffca
fffc
fffa
ffb5
ff90
ffdc
ffe7
ff08
ffa9
ff13
fec1
feb7
ff76
ffd5
ff43
0067
0178
ffcd
ff11
ff0c
fef7
ff15
fe32
ffa1
ff88
00a0
ffe9
0033
ff3b
ff5d
0078
0020
ffcd
fff5
ffce
ffd4
ff37
0004
fe49
fff3
ffb4
ffcf
ffaf
ffa8
fe76
fe73
fe14
fe09
fed5
feaf
feee
ff9d
0005
00e3
004a
ffc1
0078
0102
0043
ff26
ffed
ff75
ffcc
ff74
ff6e
ff37
ff5a
fff0
00b2
ff95
0000
feea
feeb
ff65
ff94
fe57
ff20
ffa5
0095
ffd0
008a
00cb
00d4
0127
014f
0038
00cc
ffde
001c
ffad
ffdb
ffb1
ff67
ffff
018e
00fd
0037
007d
00ca
0085
0095
00e8
008a
009f
0120
0175
010f
01ee
01c1
010c
01b7
023b
0264
00fc
0058
0000
fff3
ffd9
001b
0010
ff94
004a
0092
00c1
00e6
0132
01db
0194
01c1
01a6
01c6
024a
023f
0151
0212
021d
020d
02d3
0297
029c
01d9
0116
00ff
0043
ff53
ff6a
0038
002a
007c
0079
0163
01aa
0208
029c
02d0
010c
02af
0238
0220
0230
0284
01fe
0206
01c7
0167
0161
01d3
01eb
01ae
0094
0028
fffd
ffa6
ffb2
ffbf
ffd4
ff69
003a
01b2
00ba
00db
026d
023a
01f0
0268
026e
00fa
018d
0231
023f
0156
00c1
0178
0127
00e5
013e
00af
0030
0046
ff47
0005
0012
ffca
ffbd
0016
fed6
feb4
ff9d
0035
00c3
0164
013b
0129
01f0
015b
0182
0168
018d
00cd
0222
0151
0097
ff88
0056
003f
0059
ff50
ffcc
ffaf
ff5a
001f
ff8b
ffeb
ff1b
ff33
ff72
fee1
fe99
ff3a
ff05
fffc
00a3
00a9
ffdb
0050
fff9
0065
ffdf
0121
004d
0034
0061
ff9b
0063
ff75
ffe6
ff9a
ff7b
ff76
ffca
ffcf
0020
ff46
ff7a
ff5c
ff3a
fed4
ff2c
ffec
004a
009b
fee0
ff8f
ff9b
ff40
ff96
fff4
000c
ff6d
ff96
0023
ff6e
002a
000a
0015
ffd4
0049
ff7f
0054
ffe8
ff6f
0043
ff56
ffd0
fffe
ffd5
0049
001a
0029
002d
ff48
ffe0
ff4d
ff70
ffbc
ff9e
ff96
ffc9
ff7a
006a
ff7b
ff50
ffb4
0027
0095
ffc3
fff2
ffae
0028
ffa4
ffc7
003b
0088
0085
ffdc
ffa7
0020
00b2
ff9e
ff9b
0055
008f
ffd1
fffc
ffe7
0003
0079
007a
ffa0
00a8
004d
001b
0000
ffc9
fffd
0059
fffc
0085
0025
006a
002e
004a
ff9f
0052
ffb4
fff9
ffee
00b6
0087
ffc1
004d
0054
0061
ffdc
ffe3
ffc0
006a
ffae
ff9b
008e
0072
003a
ffad
006a
0086
ffc4
fffb
00b2
ffcc
00ba
0059
009c
0096
0009
ff9c
0031
0042
001e
ffed
fff5
0099
ffdf
0084
0072
0047
ffef
0027
006e
007b
0057
006b
00af
0007
0046
00a2
005b
ffc7
ff8d
0095
005b
0012
ffc2
000d
ffe2
0023
ffe3
0076
0048
fff4
004a
ffea
000f
0089
ffbc
0022
0081
00b0
ffba
0092
004e
009c
ffbe
ffe0
006d
ffc2
ffaf
0054
ffaa
ffed
ff91
fffe
ffcd
ff4f
001b
ff5b
0043
0052
ffdd
fff5
0028
00aa
00a0
00ad
00a2
ffed
00b8
00b6
0040
001e
006c
0024
007d
0076
ffb9
ffb4
ffc5
ff78
004d
ff67
0016
0009
0051
ffa4
0001
0032
0086
ffd6
ffa4
000b
ffff
0050
0096
ffee
ffdc
00ae
0051
000e
007e
ffa8
ffb1
0028
005f
004e
ff43
0056
ffff
ff87
ff54
ffeb
ffa2
0079
0000
ffd0
ff94
ffba
ffe9
0080
fff2
0047
002e
ffc6
ffdb
0088
0072
fff7
0065
ffe5
0044
ff95
0003
ff9c
ff76
ffde
ff8f
0080
0010
0004
0071
ff9d
0063
0014
001d
0060
00b0
005d
0093
0062
006f
ffe1
ffc6
0069
ffce
ffb6
0080
002b
ffca
0041
ffde
005f
ff99
0054
ff87
ffe2
ffdf
ffa3
ff73
ffa7
ff5b
ff57
fffb
0001
00a0
009f
ffa4
ff9c
ffd0
0029
001d
0062
0032
0046
ffaa
0059
003c
ff70
001d
ffdb
0012
0077
005f
00ab
ff97
0066
ff71
ffaf
ff49
ffc7
ffda
ffc3
ff8a
ffff
009b
007a
005e
ffa5
0029
0000
0066
ff95
001a
ffe4
ffa0
ff5d
ffec
ffeb
ff85
0003
fffd
0035
006b
0083
ff6f
ffb5
ffa6
003a
ff7a
fff4
ff9f
ff9a
00b2
000d
ffc7
ffb9
ffb9
ff9a
0058
0077
007b
ffa8
fffe
ffc1
0030
0055
ffc3
0017
ff91
0055
ffe1
004a
fff8
0037
ffbb
ff48
ffe5
0029
0064
ffb9
fff8
0059
00a4
ffe4
ffc0
0089
ffb2
0053
ff5c
ffb0
ffb5
ffb4
ff8f
ffd6
0041
0002
ffed
005c
004d
ffcb
ff6d
001a
000b
ffd3
ff5f
0039
004a
0079
0054
002d
005c
ffb2
003b
0036
0005
fff2
004c
000f
002c
ff55
ff72
ff68
ffdf
0089
ffa4
0011
0012
004f
0043
0067
ffc6
0039
ff82
ffa6
0046
fff9
ffe5
001c
ffc8
007f
0021
ffd1
002f
0000
0016
0044
0023
ffd8
ffa7
0011
0083
00a1
0059
ffeb
ffd1
0072
0000
005d
0013
ff76
004e
004c
ff93
0046
0053
0044
ffe4
0001
0063
0007
ffd1
ffce
0047
0067
001b
002c
ff9a
001e
0047
0021
ff65
ff65
0058
ff7e
ff7c
000b
ffb5
fff3
ffbf
005d
fff2
ffca
004c
fff2
0024
0014
0009
008c
ffa6
0046
005d
ff9b
0018
ff82
ffc0
0005
ffde
ffba
ff96
ffe4
ffe5
ff7d
005e
ffd9
0023
ffc2
002b
0035
0086
ffa5
ffd7
0083
0086
0083
001c
ffde
0026
005b
ff3f
0000
ffb4
004a
000d
006e
ffef
ff97
0027
ff97
0043
ffcd
fff7
006a
004a
ff69
ffc7
0049
ff82
0013
ffeb
00a5
ffae
0020
0077
ffc0
007e
fff4
0047
fff3
0020
ffee
004c
fffb
ff9f
001c
ffb2
ff94
0009
ffd5
005f
ffd3
ffec
ff57
000d
ffd8
0017
ffcd
fffd
00b2
ffd8
0040
0052
ffe4
ffac
ffa8
ffd3
0036
0047
fff7
001f
0073
ff92
ffcd
ff5c
ff80
ffa4
ffa7
0011
ffc1
ffe5
ff4d
0030
0083
0025
0030
0075
00b1
002b
ffc8
005d
009e
0091
ff9e
fff5
002d
ff82
ff7c
0028
0059
ff57
ff7c
0025
ffaa
ff80
ffe7
ff97
fff1
ffee
000e
0073
008f
001c
ffa8
0051
ffaa
0041
0033
0080
00a4
ffc2
00b0
000c
0090
ffc2
ffd9
ffd0
ffcb
ffa5
ff50
ff88
ffe3
fffc
ff55
000a
ffc7
ff7a
ff6d
005e
001d
ffd6
fff0
00a4
ffdf
0053
005b
0058
0075
ffaf
0033
00b1
001e
0069
ffeb
fffc
ffeb
ff97
0011
0050
0054
ffab
ffff
0050
ff74
0053
ffbe
0013
0016
fffc
006a
ffb3
ffaa
0037
000d
0053
00ba
0047
ffd0
006f
0035
00a6
0053
0057
ffa6
ff8f
fff5
fffe
0010
ffb8
ff86
ff9d
ffaa
ff77
006e
009e
001a
0094
0009
ffc7
00bd
ffa3
00ae
002b
008e
0049
0044
ffe3
001f
0002
0023
0068
0031
ffbe
fffa
0070
0043
00b3
0025
ffe9
008a
fff9
ff9f
000e
0042
ffdb
008f
00b6
ffa6
004b
ffd6
0058
0031
002a
00b9
008f
ffd5
ffa7
0000
0049
0080
00b3
ffa7
ffd0
0026
006d
ffc0
0087
0021
fff4
ffc9
0044
ffc9
ffbe
ffd7
ff9a
009f
008d
ffef
ffc5
0079
0019
002a
0025
ffe0
0047
ffa5
ffdf
001c
0011
0015
00ac
0005
0087
004e
0050
0060
003a
0059
ff9b
00ad
0091
0001
00a9
ffcf
ffe7
ffd7
0049
006c
ffe9
004d
0015
ffb3
ffb6
ffba
fffc
0052
003f
ffcb
00a1
0068
ffe1
008f
008c
0064
003a
00bb
0001
0013
00a4
fffe
0014
0037
000e
ff7f
008e
fff3
008a
0003
006a
ffb8
ff77
ff96
ffe9
0000
ffb6
ffc5
ffb4
ffcf
0050
0014
0014
ff73
ff97
008c
005c
0021
0063
002a
007e
ff89
fff5
0038
007c
ffcd
0066
0019
000c
0087
ffac
fff9
0080
009f
007b
ffb4
ffe1
009c
ffd8
00b3
009c
ffd1
0043
ff93
003f
fffe
0093
ffed
ff7e
000b
ffaa
ff7e
007a
0043
0021
ff76
ffcd
00c6
00d3
0085
0116
01a0
00e2
0159
0154
0148
0138
009d
009e
00cc
0040
00a5
00c4
fffe
ffff
ffe8
ffe9
ffa3
ffeb
0089
ff7b
003e
ffe2
0062
00e6
000e
014f
017b
00e3
025d
0175
0187
016c
0165
00ef
00b0
0092
0080
0070
002d
0039
0090
0078
0057
001e
0067
ffc1
0012
ff91
0062
0045
0052
00b1
005c
0194
0223
0239
00cc
005e
003d
ffe3
ff51
ff5e
ffb7
0010
0013
ffde
ffb4
ff39
ff20
ffbd
ff9d
0031
ffa0
0017
ffd8
006a
ffd4
ffe3
ff5e
0067
0093
0180
0076
00c8
ff9d
ffd0
ffb2
ff74
ffde
0036
0066
005b
00ef
ff83
fe93
fe87
ff76
ff56
ffd2
ffc5
ffce
0062
0096
0038
00a6
002c
005e
001c
00e0
ff86
ff6d
feea
ff1f
ff62
feb6
fe6e
ff68
ff28
fedf
fdc8
ff33
fecd
feb7
ffb4
feaa
ffa8
fff2
0049
ffba
0047
ffdf
0004
fff4
011e
0120
000f
0085
ff99
ff00
ff74
00d0
ffa9
ff85
fe8d
fecb
fdf2
feb6
fef4
fef3
fec2
ffa6
fed7
ff8e
0055
005f
fff2
0067
ff8f
ffd8
0089
ff57
0125
ffdd
ff7b
ff5f
ff4e
ff8c
ff5a
ff36
0001
ffc3
ff47
ff9f
fec0
fe95
feaa
ffd4
006c
000f
ff69
fe71
fed2
ff36
ff83
000c
ffda
ff7d
0070
0084
ffe9
fff9
fd58
fe4a
ff9d
feca
ff0c
fea7
ffd5
fea0
ff64
ff0d
ff9f
ff86
ff67
00a9
00d5
ffd0
feb4
fec6
fe76
fed0
ff54
ff5d
ff8a
fffb
ffad
ffc2
ffea
ff1d
fd36
fe52
fece
ff74
ff66
ff88
ff6c
ff97
ff78
fea4
feea
0014
0011
ff73
00a4
0078
0066
fea6
fed1
fe38
ff1a
ff89
ffe3
fff6
ffdd
0034
fe4e
fe35
fe0f
fe69
ff08
ffac
004a
ff47
000f
ff9c
ff88
feb7
ff92
ffd6
ffce
00ed
000a
00cd
ff95
ff28
ff39
fe80
ffa0
ffc0
0033
0027
000c
ffb4
fdb9
fdbb
fe71
feb4
007f
014a
015c
0155
01d7
013b
fff9
fea5
000e
ff65
fff6
0070
00b4
00c5
0131
ffe6
0151
ffb7
ff5a
0051
ffe8
ff94
002d
ff95
fd67
fead
ffb9
ff13
00ee
020d
01e1
01f5
01e4
0042
ff8a
ff8f
ffa6
ffac
006c
012d
00a0
00d2
01d9
016f
0176
ffab
006e
0044
0072
ffae
ff98
ff93
fe36
ffe2
006b
003a
00dd
0211
016a
00ff
019e
ffee
ffb1
ff67
0040
0087
00d3
006c
ffbc
0121
01a4
0119
017f
0097
ffd5
001c
0045
ffe1
ffa9
0080
fed0
00a1
006e
0072
00e3
0130
00a4
0048
0133
00e4
0006
0016
0021
0038
00ef
00ba
009a
0121
0116
0202
0287
015c
002f
0024
fff3
001e
0003
00e6
ff45
0021
0045
007c
0146
01d8
00bf
0158
0108
0039
00df
00bf
005a
0080
00a9
0161
00c4
0182
0080
01bb
0193
01ee
004f
0029
0081
0089
ffef
00c2
00b9
003b
ffdd
005c
012e
011a
013f
01ae
009b
00b8
00a9
ffe9
0008
0093
00aa
0087
0081
0114
00e9
0113
001f
0183
0020
0013
0044
001f
0083
0026
0097
00f1
0084
003a
00c5
014c
0146
0148
0229
00ef
0085
ffa5
0031
0061
004b
fff7
ffe6
00aa
00a1
002a
ffdf
00d2
ff6a
fff4
008e
0061
ffb4
ffd9
007e
002b
0085
0010
ffff
0124
01b8
01cc
01cc
0099
0158
0110
00ad
ffd7
0041
ff7e
0026
013e
006a
0015
ff75
ffd9
0090
ffdc
002a
001a
fffb
006f
0054
ff6b
fec4
00f2
0092
018f
0259
0202
017b
0071
00e3
00c7
ffeb
fef1
008e
ffe3
0029
00cd
ff8b
ff62
fecd
ff8d
ffb3
0019
000e
ffa2
00d4
012e
0057
fee3
fde4
feef
003a
00fc
00b9
00f0
00ca
0158
0057
0010
0018
0016
0040
005f
009e
0007
0026
ffa8
feef
ffa6
ffc4
ff83
0088
ff7d
0050
010d
ff9c
ff13
fea0
ff7a
ffe6
00d8
00f5
00dc
00a8
0141
ffaf
00aa
ffd6
ffc2
ffc0
ffed
ffdd
0039
ff50
ff36
fea9
ff41
ff88
0043
0055
007f
006a
0028
ff6f
fef2
fe7d
fe44
febe
000b
005f
ff4b
0002
0099
00a6
00a7
ffa2
fec0
ff9b
ff81
ff70
ff62
ff2b
ff18
fed0
001a
ffeb
ffce
0052
ffd2
0072
006a
ffe7
fec1
fe1a
fd40
fdd8
fdde
fd49
fe8f
feca
ff25
fff2
0050
0097
fe7e
fda7
fe51
fe9f
fe89
ff71
ffae
fff7
0013
0072
ffad
006b
ffda
ff8a
ffa8
ffb9
ff29
fea8
ff4b
fdd1
fe55
fe4c
fe52
fe12
fd7c
fdb4
fe5c
ff2f
fe4a
fd2d
fed4
fe5c
fee3
000c
ff1c
0025
0056
ff8d
0000
ffc9
0077
ffec
ffca
ffa6
fff3
ff99
ff3f
ff81
fe95
fe7a
fee4
fec5
fef5
fdd0
fe60
ff2c
ff57
fed7
fed6
fff3
ffdf
0027
ffd7
ff81
ff97
007d
ffef
ffa1
ffec
fff7
000c
002b
007c
003a
ffac
ffd2
fff0
ff99
0033
0004
0005
ff2c
ff80
005a
ffe5
ffab
ff9c
0054
fff0
ff76
008d
ff80
ffd4
0073
ffa0
ffaa
ffd8
ff89
ff76
ff41
ffbd
ffc8
ff4d
ff96
ff78
fffd
ff84
ff60
0025
0057
0014
0001
ff7d
ffc0
ff99
004f
ffa3
ff94
ffdb
ff53
ffc7
0038
ff58
ff84
ff75
ffe6
0046
ff72
ffca
ffaf
0034
ffcf
ff9c
ff89
006b
0051
ff95
003f
ffab
ffdc
0037
001f
0074
fff7
0038
0043
ffbb
001c
0053
ff7b
0042
0013
ff6b
ff67
ffb5
0003
ff92
ff8c
ff85
ff98
fff5
000a
001c
00b0
0149
0093
009a
008d
004d
0107
0144
010b
0053
fffa
fffd
0007
0021
ff75
ff4d
005c
0022
ffbd
ff60
ff92
0040
0005
002e
ffdb
ffaf
0009
ffa5
ff9c
0077
0057
0122
000a
0011
0027
0103
0017
0066
00a6
001e
0000
ff6a
ff99
004d
ffb3
fffb
ff66
ffbb
ff84
008a
ffeb
0018
0004
ff95
fff0
ff9d
ffbb
ffc4
fffb
ffac
0080
ffc7
ff7e
001c
0000
00d0
0156
0075
ff9c
ff86
0045
ff94
ffdc
ff7b
0037
ffa5
0077
00ef
00f7
00a1
ff7f
ffcf
fff2
ffd2
001e
00ae
010c
008e
ff9d
ffd2
ff27
00ca
fff6
ff89
ffb2
0097
ffb2
ff87
ffd2
0044
ff5d
ff4c
ffc2
0021
0047
002e
0019
00fb
0127
fffb
000b
008d
0057
ff9b
0048
0090
ff23
008b
ff8a
00dd
00c0
ffb5
ff74
00fd
0027
ffc7
ff7e
ffa9
005c
0037
fff6
ffdf
fff7
ffa0
ffed
0060
ffdc
010b
00fa
0017
00c9
ffbe
fff0
0051
0046
0038
0014
017e
01b0
00c0
000b
00ea
0021
ffd4
ff36
002d
0025
0043
ff60
0015
0039
0012
0127
01bb
010f
003e
00bb
00f1
00c4
ff94
0078
001a
ffae
0002
006e
00f8
0124
017a
005f
ff50
0000
0013
003c
ff48
ff96
ff7a
000d
ffe5
0150
00a8
00e0
01bf
014a
002a
0036
ffd0
ffee
ff40
0007
ffbb
ff19
ff55
0010
00d8
00fd
01ec
0056
fff7
fedc
ff19
000f
ffe0
ff68
0054
ffb8
00ca
009d
00d2
00ef
007d
00c1
00da
0078
ff4c
ff7c
ffe3
ff65
ff85
ff0d
ff0d
0032
010f
00f0
00ba
0097
ff23
fe22
febb
ffd7
ffe3
ff9d
fffb
00c2
0019
0115
00c4
010e
0197
0128
01da
0049
ff53
ffa0
ffc0
005b
008b
ffea
ff2d
ffd0
0037
0181
00a1
0118
009b
ff28
fed8
0026
0010
fffe
004c
ff8c
fff7
0125
00fe
00a3
0114
0160
00b5
ff95
0004
ffed
ffc8
fffa
0125
00a8
008a
ff40
ff8e
00ef
00ec
0087
0145
ff7f
ff2b
fed4
ffb2
ff97
0015
ff69
ff9d
013c
00ea
0062
0019
0015
00da
001d
ffe4
fe40
ff82
009b
011a
00fc
0024
ff71
ffe2
0121
009b
00cb
00b9
fe15
ff26
feb4
ff7f
ff5e
006c
ff66
0074
0072
0046
ffe8
ff15
0088
00a5
0021
ffb5
fe9b
ffc5
0031
0044
00ed
0060
ff96
012b
00cd
008f
00ff
ffaa
fda9
ff78
ff41
ff96
0008
ffda
ff61
ff6b
ffc4
ffbc
0066
003f
00cd
007a
ff8d
ffba
feb9
ff9b
010a
00e8
004c
010f
0024
00ad
01e7
015b
0103
ff62
fd8c
fec2
ff33
ff5f
ff8a
0026
0063
ffd4
ffa5
ff7e
fffd
0074
00a9
00df
ffde
ffa3
ff49
0082
ffe1
0011
00d1
004b
016a
00c4
00db
ff5e
0031
fefa
fdee
fec5
fe82
ff21
0051
000f
ffc9
ff77
ff23
ff04
ff4f
0045
007f
00c3
005d
006b
0041
ffe8
0071
00be
00fb
0051
00f4
0174
0101
fff4
ff76
0046
ff61
fed3
ff00
ff65
ffe0
0042
ffc5
ffd1
ff49
fec6
ff2f
0025
ffb1
00aa
0020
ffa3
0035
0126
0126
0078
006a
0091
0135
00c8
00fe
009b
ff4d
ff35
feeb
fe95
ff5a
ffc8
ff4e
005a
ff32
ffa6
fecd
ff76
ff0d
ff68
ff77
ff77
0051
002c
ffc7
ff88
ffb1
0091
008f
005e
004b
01bb
ffc5
ff7f
ff8d
fee6
ff50
ff1f
ff78
ff97
ffa3
ffc7
ff16
fe8e
fdfd
fe41
ffa1
0030
0018
ff53
006b
ff4e
ff7f
ff36
00f9
0107
005f
007b
0178
00dd
0046
0024
ff20
ff01
fea8
fe8c
ff63
fff4
ff4a
ff98
ffe8
feae
feea
fed0
00a9
0024
0026
0018
fffb
002d
007c
0039
008e
0078
fffe
011a
0043
00af
0122
004a
fe36
fe7b
fe8b
fe96
ff97
ffa4
ff4d
ffd6
ff69
ff12
ffcf
0007
0066
fff0
ff73
ff15
005d
fff4
ffe6
ffe3
0044
000b
002a
00b9
ff72
00c8
001e
ff8d
ff3f
fe4f
fe71
ff2e
ff43
ff6b
ffb3
ffda
0038
0048
ffa7
0061
ffe1
00f3
ff22
ff0a
fe3e
fed8
ff63
ffff
0025
00cb
0084
0052
009f
00f4
00ab
ff5b
fe11
feb3
fee8
ff55
ffe6
ff97
ff48
ff74
ff4e
ffd3
0023
0191
018f
00ae
0064
ffe8
0077
01e5
0144
00ae
0035
00a7
0149
ffb5
fe81
ff6d
009c
ff14
fef3
ff20
ffbb
ff1c
ffe8
ffdf
ff8c
ffbd
ffa6
ff65
ff9a
00a2
ffbd
004c
010e
01cb
0155
017d
0121
014b
00e4
ff5d
fee6
fe87
ff11
ff9a
ff58
ff9e
ff31
ffec
ff4b
ff6c
ffe7
ff92
0025
004a
ff55
ff60
ff63
004f
0031
007f
00f1
00eb
fff4
0071
0059
0088
0127
008b
0038
ffee
0060
0032
000d
ffbc
0049
ff69
0015
ffc3
ff91
005d
ff3d
ff6f
fffc
005c
ffc9
ff95
ff3f
ffbd
ffb7
ff55
ff5e
ff51
0073
ffc2
ffb4
0079
ffa8
005b
ff7f
0000
0059
001c
ff9f
003e
ff6f
ff48
ff6a
ff50
ffed
fffd
ffe7
ffda
0046
ff91
ffc4
ff6e
ff50
0031
0028
ffd8
ffa0
004e
ff7e
ff97
ffa5
ff57
0011
ff49
ff6d
ff8b
ffbf
ff47
ffe9
004c
0014
ffd8
ffec
ff95
0053
0030
fff5
0021
ff4f
ff69
ff42
fff0
ffb2
ff31
ffa1
ff9a
ffeb
ffd5
ff65
ffae
ffff
0013
fff0
0006
0018
0055
ffa1
0021
001c
ff98
0035
0031
ffad
ff6b
ff8d
ff83
ffa7
ff8f
ffb3
0004
000d
fedb
fff6
ff98
ff4d
00ce
00cb
000c
fffc
ff88
ff47
ffaf
ff16
0014
ff69
ffb5
ffe5
0019
ff96
0021
0011
ff82
000f
ffed
ffca
004c
0039
ffd4
ff63
ffe2
0090
00e6
0019
00d8
00c8
0008
0151
0092
013c
000e
ff96
ff20
ff83
ffad
ffdc
0057
ff84
ffd7
0027
ffbf
ffc9
fff9
0090
00a3
00a6
0086
0126
0055
ffe9
005a
002c
011e
00d6
0137
01c7
01b5
0137
00d2
ff77
ff69
fee0
0084
0025
003b
ffb0
ffcb
ffd5
ff97
0097
004f
0038
00bf
ff3c
ff6e
ffa4
fea1
fe9f
ffc0
ffd0
ffd9
0102
00bd
0055
0189
019c
00df
0106
ffbf
fff6
ffdf
ff86
ff62
ffd4
ffc5
fff0
ff6f
ff4d
ff81
0090
0031
ff1f
001b
0193
001b
ffe1
006f
0003
001b
ffeb
fffc
0066
ffd8
00c8
004a
ffbf
008a
007b
fff0
ffd9
ffec
ff66
ff57
ff4b
ffd3
0063
009f
00cf
0022
0009
0012
003d
ffda
0108
0121
0165
0110
0107
ff18
fffc
0077
00c1
ffa6
0105
0060
0050
001b
005c
0006
ffdc
ffd4
ffcc
0018
0028
0104
00dc
003d
ff3c
ff46
fff6
0068
015f
0150
0122
00e5
ff9d
ffc2
00d4
00b4
ffa1
fff3
022e
00fe
fff6
000e
0032
ffc2
ff89
0010
ffa0
006e
004b
008b
00f6
0075
ffdf
00a1
0095
00d6
011a
001d
ff7c
ffd7
ff70
0073
0085
fff1
ff6b
0099
019e
00d7
ffdc
0022
00bb
fff0
ff70
002b
ff5d
0035
0047
ffa3
00fd
00b4
ffc6
ff78
004c
00e7
ffca
fd8b
fe08
fed2
ffd0
00d5
0123
00ea
005f
0059
001a
ffc4
ff14
fff2
ffb0
0020
ff4a
0028
ffb6
ffbc
0009
0079
ffba
feb7
fe5d
feb0
ff30
ff87
fdba
fcb6
feb3
ffdc
00dd
016c
01c5
019b
0039
ffb4
ffd8
fed9
ffb4
000f
000f
ffbc
ff41
004b
ffbb
ff79
ffb6
fef3
fdf5
fdb6
fe04
fed1
fea6
fd7d
fd2e
ff01
0030
012c
01ca
015e
0194
001a
ffd2
fff6
fe97
feff
ff25
ffc2
ffd2
ffe7
0028
0040
003b
ff78
ff14
fdb4
fc9d
fd23
fd13
fdda
fd3e
fdf4
fe33
0090
01d5
013b
00d4
009e
fff2
fe29
ffd8
ff8b
fdb6
fe5e
fece
003a
0029
ff77
ff57
0000
0006
001a
ff5e
fd56
fdea
fd83
fe33
fe86
fe2c
ff27
ffaf
00c3
01fd
01ae
00da
ffe0
fed6
fdeb
fe6e
ff1e
fe3a
fe7b
fe95
ff8b
0011
ffb8
ffe3
0018
0026
002b
ff14
fdf5
ffb1
fec5
fee5
ff9a
ff06
ff17
ff20
010c
0127
014c
0044
ff9f
fde4
fe66
fdab
fea0
fdf3
fe04
ff38
000d
ffe6
ffac
000a
ff78
0032
00d3
00ac
ff75
000e
ffa7
ff26
fff0
ffc9
fedb
ff65
0135
019f
00a0
ff46
ff84
ff4f
fea2
fe4b
fe78
fe27
fe9a
0016
ffd6
006d
ff55
ff85
003f
0081
00e8
00bf
00d5
0054
ffca
ff3a
ff90
ff89
ff2f
003c
0102
0145
00ab
ffa7
000b
feae
ff39
fe98
fe54
fe4e
feed
00c6
00a2
0046
ffe1
0039
ff56
ffbb
00a3
0142
0185
0077
ff13
ffd6
ff9d
0038
ffa1
000c
00fb
0075
00ca
00bb
0065
ff98
0076
ffd7
fe83
fef9
0012
006a
0066
ff7c
ff62
0000
0002
0009
0046
0155
0065
0080
006a
008b
007c
ffd2
feed
ff48
008d
ff70
00e5
00bc
00fd
0097
011a
ff98
ff4d
0002
00eb
00cf
0071
0034
ff77
0004
ff6e
0019
004e
00e9
00af
0172
01dc
00ff
0034
0056
ff60
fefe
ff87
002a
010b
019d
0149
0160
00cf
002d
0012
00fb
009a
0067
004a
ff8c
ff4b
003e
0012
ff85
011e
016d
012c
018f
018d
0052
0038
00d5
ffb1
ff3b
ffad
007b
00e0
012c
00d4
0117
00e8
004c
01bd
010e
00e8
0047
ffe8
ff54
ff6b
ff3a
0035
fff6
ffa6
013b
0289
016d
0191
00d7
004b
ff00
0047
ffd8
fffa
0011
ffac
000e
ffce
00b3
0065
014c
00d1
0110
0044
004b
002d
0025
003a
ffeb
ffe6
ffc8
fffa
00f1
011e
0001
006e
009d
ffb6
ffd2
ffa9
ffbf
0070
ffde
0034
008e
009a
0095
001f
0169
0080
00aa
0139
0038
0039
ffbe
0006
0047
ff48
ff99
ffb2
ff81
0016
0041
0062
00b1
005c
00e8
00f5
0074
00cc
009e
009e
00aa
00a5
0099
00a9
0055
0049
ff95
0065
0046
0026
ffc8
ffaf
ffec
ffe1
ff9d
ffa6
fffc
0057
0148
0100
01a6
0195
0194
00d0
01d8
02d2
022c
01a4
0252
0141
00e0
ffd0
0045
ff9f
ff2b
ff52
ff85
0048
ffd4
ff90
ffdf
ffa3
ff50
0031
0001
0014
ffab
0082
ffa6
0085
011d
ffd4
ffe8
006c
0063
004d
00da
00bd
ffd5
002c
0001
ff88
0056
ff9a
ffd4
ffda
fffb
ff56
ff3b
ff60
ffc7
ff75
0035
000d
fff2
ffcc
ff6d
ffd3
fff8
ff75
0005
ff88
ffbb
0010
ff5e
0038
002c
ff8f
0013
004f
ff3c
0042
ff7b
0026
ff67
001e
ff48
0006
ffcc
ff1b
ffb6
ff3a
ff21
ff4f
ff13
fef4
fefe
ff4b
ffbf
ff37
ff96
ffe4
ffb1
ff07
ffcb
ff34
ff1f
ff77
ff92
fff4
ff33
ff65
ffc3
fef5
fff9
ffad
fefe
fef7
ff01
ff53
ffa0
ff57
fef5
fff7
ff08
ffbe
ff3d
ff51
fff1
ffb4
feb8
ffa4
ff1d
fff8
ff78
fffc
ff43
ff96
ff6f
feff
ff03
ff19
ff57
0004
ffbc
ff88
fff8
ff60
ffa6
ffa6
ff15
ff22
ffa0
ff81
ff5f
ff75
ffb4
ffe6
ff06
ffd4
ffa3
fecf
ff99
fec8
ff63
ff31
ff2a
ffc0
ffa5
ff6c
000a
ff3c
ff9e
fef2
ffc8
ff27
ffbd
ff77
ff86
ff75
ff6e
ff3a
ff81
fea1
fe77
ff59
fef7
febd
fe28
fe8f
ff37
ff19
ff74
ffbe
ffcf
ff9d
ff39
ffd8
ff1c
ff95
000e
0017
ffcd
ffdf
fff4
001c
002a
ff93
0036
004e
00a1
0165
009f
0068
007a
004c
00ab
ffe2
ff1c
fefd
ff11
ffbe
ff1f
fef1
ff61
ff24
ff6e
ff6d
ffc6
ff5b
0024
000d
0044
0094
ffda
fff6
ffad
ff98
0127
009f
0064
00ad
0069
ff96
ff5b
ff4e
ffa2
ff80
0059
ffe9
ffec
ffc7
fee0
ff24
ff6e
ff61
0005
ff8a
0016
0013
000f
ffcb
002a
ff8f
ffc3
008b
010a
ff77
ffdc
004c
ffb3
0097
00c9
ff6c
004e
0055
ff3e
0075
ffe3
ff39
ff14
ff1d
ffe1
ffa4
ff81
0009
003a
ffdd
ff03
ffd4
ffc7
0026
ffcf
ffbb
002f
009a
00e4
00bb
00e6
0035
ffc1
0038
0015
ff72
004c
ffd8
fe83
fe58
ffdb
ff89
ff80
ff48
0005
0036
000b
00a7
ffab
010e
0060
008c
00e3
0084
00de
01da
0171
00eb
ff1c
ffa0
0027
ff34
ff0f
fe92
0087
0041
fe8a
ffd1
000b
ffd6
ff36
ffa3
ffd7
ffca
008b
ff61
ffaa
fff2
00c6
0023
00c9
00f3
011d
011f
00a7
ffa7
ff5f
ffe8
ff7f
fe30
fef6
001f
0134
ffe6
ffcf
ff3c
ff6f
0022
ff21
ffcb
000c
ff00
0025
fedc
ffa6
ffa2
00f9
005e
00fa
0164
00f5
0115
00da
005a
ff96
fea1
fe8f
fecc
ff6c
ff59
ffe7
ffb3
ff58
ff81
0031
ffcf
ff0d
000c
ff58
ffa3
005c
0068
fee9
0012
00e9
0057
0198
01d8
013c
0159
00f0
fffe
001d
ff0b
0074
ff2c
0044
ff58
ff6c
ffa0
ff8a
ff0e
ffc2
ff50
ff1b
ffe1
ff89
ffa8
00c9
0054
feec
019e
014b
ffa5
004a
009d
002e
003b
0062
017a
0111
0110
00ef
ffe1
011c
009a
ffd9
ff3f
ff63
ff23
ffd7
ff75
ffaa
ff47
ff31
ffc4
fef6
fff4
ff9b
00f0
00c5
000c
ff53
007f
004e
0166
01dc
020e
0229
0210
0156
007b
0155
ffec
fe87
fe79
ff12
fff6
ff4e
ff02
ffb0
ffd9
0023
ff57
fe29
fe55
ff1d
ffbb
