fff5
0000
0006
0008
ffff
fffb
fff9
0004
0008
000a
0009
fffd
fff7
000a
0006
fffb
fffd
0001
0006
fffb
0003
0001
0005
000a
0004
000b
fffe
000c
fffd
ffff
0006
ffff
000e
0000
fffb
0002
ffff
0009
0005
fff9
fffc
0005
0001
0000
0002
0001
fffa
0004
0008
0010
0005
fff9
ffff
ffff
0000
0007
fffe
0000
0002
0008
000b
fff6
0000
fffb
