0093
00ba
fd55
03cf
0055
0205
04ff
04cb
01d4
fd16
fecf
fd84
007f
feed
0117
fec1
feba
ff5b
ff57
fe9c
007a
ff25
fe97
02d6
00eb
00ee
fc3b
0071
0137
015d
fedd
0005
008c
0269
fc41
0136
0343
ff01
feea
02c8
fd23
020e
02cf
03b3
fee1
fd1d
00af
0163
02ab
fdbf
03d1
ffb9
02a1
02d2
00da
fd48
ff11
02ab
00ac
0179
fd43
00a3
01b6
01ac
002c
ff0f
feb3
fe0b
01e1
0091
fe95
f9ba
fff5
0167
00b9
02ce
01f4
fcb4
0084
fc41
fe36
02ac
fe3a
028b
00c4
fec8
00d4
ff34
fdb3
013f
ff76
ff5d
0120
01e1
01dc
fc80
0296
0194
009a
fee1
fd72
fe09
0298
0085
ff4f
fe04
0306
fdff
023b
fed4
0162
022a
fd44
fe8c
ff9b
01ac
fcd5
ffc4
fdd9
00be
022d
fabb
01ef
0101
00e4
0029
01ab
0132
02a1
fdb0
0236
f9fb
00e2
ffdf
fe89
fb18
fe7c
014d
0047
0119
fc4b
00c0
fffa
0011
fef7
02c9
0239
fde2
feb4
feef
0050
00ff
ffe9
00ea
0258
0094
0164
012d
013d
fe03
ff7e
fbd8
01c3
ff39
fecd
ff72
01d7
fb6e
023f
0059
00d1
fce1
fece
ff88
00d2
02e7
fbf3
02ad
fe02
ff89
fd4d
013b
fe6d
011d
0212
fc89
0058
007d
ffa6
fdcd
010b
026e
0198
0277
fc2c
ffde
01b3
ffc2
026c
fb66
0005
fb97
016a
fe9c
0334
fefa
0104
0170
fd23
00eb
ff47
0281
ff03
0025
fd6c
fe0b
fe22
01d3
fcde
002f
0277
0119
004f
01c2
feac
00fd
fde9
014b
00d6
fd64
fdc1
fff0
fd7e
01ff
fe22
0215
00f5
fd11
ff9a
008b
fcd6
fe74
0086
0306
fc90
fe04
0050
fcdc
00bb
fa61
ff7d
0213
ff34
0263
fe0c
0250
0331
0006
025b
fcb3
0267
002f
0014
f9bb
fec3
fd49
00ec
0115
042e
fed8
022e
fe56
fcf6
fe34
fd54
0122
01f2
ffb4
feff
01d9
0182
0238
ffc1
ff4c
025e
ff62
008d
0050
ff19
0147
00d3
016b
fe71
0071
01cf
fe82
ff96
0140
027b
fc82
fc06
fe92
017e
01bb
fdfd
fe09
ff78
0336
faf4
fdef
006f
fca6
01a4
fd27
ff15
ff56
fdb5
ff83
ffcd
015c
fe43
01ec
fdd4
04f1
fd78
0125
feef
fc41
0214
0136
0299
0196
01a5
fdc5
0150
02b3
0176
ffca
ff95
00b5
01e2
0115
fe29
fe5f
003e
007b
fdaf
0005
fcd3
fe31
00e0
ffcb
0054
021b
029a
0274
02f4
fad1
023a
fe12
feec
01ae
ffee
01c5
0010
001a
00e2
fde2
0290
001b
ff21
00b6
fd1d
008f
0292
fed8
fdf5
fe26
fe83
00f7
0202
03fd
013b
020e
01cc
0129
0225
fc41
fe19
fe74
0242
fb6d
fdb3
fcaa
fe4a
fe9f
fa5d
0140
ff83
fb44
016b
0306
fe87
fefd
fe39
fe94
028d
fe78
fea0
015a
01d2
fda9
00b5
ff4f
00c9
0292
ff87
0437
ff42
feeb
0356
00d5
0247
fdd5
0205
0249
0369
02ee
0033
01ea
fdc3
012e
fe21
01f3
01cb
005c
0203
01a1
fd07
fde6
fffc
00a5
0236
0107
ff78
fcc4
0233
010b
fea1
0170
fe0a
0137
0182
011d
ffde
01bb
fd15
01ff
01e0
0689
0042
ffb5
ff29
0483
0100
ff97
02fd
01f2
fe1b
00d7
00cc
0167
ffac
0156
ffd2
001b
fdfb
00da
0219
012d
03ec
00d4
0009
037e
fd02
fd41
0009
01a3
0091
02cc
fffd
ff9c
0168
ff0c
ff8e
fec3
016b
fdba
ff2d
0253
ff89
0161
01af
ff9c
feab
fdad
00ab
0035
fe57
04d8
01ba
ff68
0147
fd80
024a
03e2
029f
005f
fe57
fefb
0265
0064
0148
003e
0517
ff79
fee9
fdb6
015c
ff92
0195
010d
03cb
fe86
017f
fe35
fd5e
fe9b
0055
ff94
01a3
0200
ff81
0078
0339
0054
0221
fba2
fee9
fe41
fddc
fdf7
ffa8
fca4
00b5
ff5a
01e0
017a
02ee
008a
0168
fe6f
003c
005c
feec
fdea
fe91
0368
003b
ffd4
fe63
008d
0094
fde0
0236
fe34
fe0f
fc4b
fcd9
04fa
fd51
ff42
039b
f949
0429
00ec
01db
058f
ff3c
0138
0098
0288
fe9a
017d
fe13
0339
00ff
fe2e
012e
febf
0205
00d0
001f
0195
fe07
fe91
02b6
03bb
ffa6
009a
fe40
0250
0512
fbfd
0295
f8ee
feeb
fe75
fe66
0156
01b9
00d6
01ba
feca
0333
0202
015a
ffa0
01cb
0185
0220
00cf
0001
fd38
fe3f
0193
ff2f
0326
ff10
fec5
fe65
fece
016b
0159
fc88
fe49
0012
fab4
02d7
fe66
00e3
ff14
00c6
ff57
ffdc
03af
fdb0
001e
0035
002f
0092
0103
006e
002c
0346
025d
feab
016d
fd1c
018b
fe66
0343
faaa
0267
fff6
ff10
067f
fef1
0116
fe5f
fcfc
0198
fdae
002f
fe27
00a4
fc00
012a
0065
019d
0102
ffc7
0094
021c
fdff
ff18
0241
022c
fd60
013e
fe20
0231
01df
01ea
fef2
052a
ff7c
0113
fecd
ffc2
01ac
05b4
ffcf
00a0
0052
fd58
fc78
ff14
fe78
000b
0007
0112
0166
009d
fe5a
fed8
0138
fe68
ffa9
ffc3
020d
fec9
0053
00c0
ff66
ff0b
fd93
00f5
02e7
000e
ffa8
02fa
ff93
04d6
01a2
0200
fde6
02d6
020b
ffd7
024b
0151
0021
002e
fe48
0182
0281
012f
0109
007f
feba
0389
01b5
ff06
0060
fd3c
01da
011e
0246
ffa9
00ed
011d
0236
033d
fe1b
05b5
fe3f
0055
0293
fddd
0109
ffb1
00c8
0009
02aa
00f2
00e2
fd36
fe44
febb
fe20
02ba
02bd
0133
ff67
003e
033f
030c
ff53
01f8
0126
fc0c
ff14
ffae
fcb3
031d
ff30
03a6
ff17
00b1
feba
ff0e
0187
ff25
01bd
01f0
014e
01b5
0054
01df
0034
0122
01d7
01e3
ff89
01a6
0083
01a7
016d
fd21
0067
fece
00c9
fe71
002b
fc1a
feb0
ff20
fe1e
fe21
fd17
fd58
0158
06af
fb32
0235
00d0
0007
0146
01bd
02fe
fe46
fce8
ffe0
ff20
009c
01be
01b3
fe6f
0337
fd76
003d
feb2
ffe4
faf3
fe05
0270
0163
0083
fe74
ff18
0194
0233
01a6
0153
01a6
015a
01b2
020d
004a
fe8d
0331
fc21
011e
ff12
ffef
002d
feb3
ff12
fee4
013f
007a
02d9
0441
0045
0418
0100
0261
fcd9
ff81
ff3d
ff4e
02c0
fdb3
fb26
fe03
01c7
0171
fe44
0217
fda5
fd75
0232
025a
0293
0154
fb4f
fe02
000a
ffb7
fcfa
0134
fce7
02c1
0149
0203
0056
ffea
018e
ff84
fe53
0033
fcd6
fffc
0194
fb7f
0222
0211
fdb7
0663
031c
fdad
01c7
0047
00d8
ff8c
fdda
0351
0285
0092
00c7
0017
fe14
fc91
0378
ff2e
fecf
0126
fefe
00db
ffd6
0598
023b
ff84
ffa8
011f
00c6
0581
feb9
0090
ff23
fd7d
0331
0153
fe42
fc7c
018c
00d4
fee7
fedc
017e
0016
ff20
fed0
00d9
01e2
ffc6
0318
0025
0131
ffa1
ffe5
0105
fe55
fd11
ff7f
00df
0374
fe49
063e
0057
00f7
024b
041e
00d7
ff8a
006c
002f
00c6
ffe7
0016
fea2
0193
fe74
0006
00e3
0012
02f1
fe98
01a1
01f3
0124
022b
fdde
fec5
ffc4
fff3
feb1
01a2
000a
fe80
0010
fe13
ff05
ff32
ff7e
0060
ffd0
fdd2
00d1
fdd5
fea7
ff7c
01de
00e4
011c
ff4f
009d
fe0f
00ff
01a2
0137
fe37
005f
fdfe
feba
fef5
fff2
ff0e
00e0
ffce
fddd
000d
ff39
011a
010f
0092
fece
0025
ff8f
fe5c
ffe6
005a
ff0d
007c
fe76
ff62
fd92
fe2c
00e1
ff48
ff44
fefd
00ad
feff
019a
fde4
fe2a
ff0c
00b4
013d
ffa2
ffd1
0123
fb3b
fe00
0115
0374
026e
ff02
0367
012c
0124
fe6d
ff5b
ff23
01ac
0007
0172
fe56
fe40
014b
fec2
ff41
02db
01d7
0309
ff49
0094
fd54
fdae
fd93
02ef
ff47
fdee
ff19
016c
fe1d
015d
0138
feac
fded
ff2b
01b4
014d
021c
020e
fe70
fd7b
0027
fd75
ff92
0137
0250
022e
ffd2
fc90
0018
0239
fdb8
ff94
ff6d
008c
01f0
01f4
0247
fe56
fef2
028a
02d5
ff8a
fec3
fe75
fc94
ff66
fdd6
0127
008b
ff14
0028
feb9
0165
ff2f
ffb9
fede
00cb
0010
01a6
fe1b
00d7
fe05
015a
020c
018f
fe6b
018d
fea2
02ed
ffc7
0311
fdf1
040c
fbc4
01f5
ff3a
fe32
0070
023c
0070
010f
02cb
0196
0350
022a
00a0
0211
feac
012e
fec4
0265
0063
0280
fff7
02bd
ff7d
ff83
0019
0098
fef7
ffbb
fd6e
fe4f
02ca
fe02
ff7f
fe55
fde5
010c
fd22
01d4
0278
fd58
00b8
02f4
0000
0256
0306
0037
022e
ff8a
fe41
0012
0298
fd03
00c5
005d
fe58
00e9
fe74
024c
015b
ff6e
0255
fdbd
0234
fb54
01ea
ffde
ff82
fdea
026d
0005
ff80
00aa
fe52
009b
00ad
fdd8
029c
ff31
016f
ff1a
ff0e
ff67
023d
010b
01ed
fcca
02b4
00df
02e9
0235
0213
fe2a
ff67
0260
fdcd
023b
015a
ffbb
023a
fd43
ff18
ff56
00f5
fd0a
fe14
fdf9
ff6b
00e1
00a3
fdff
ffe6
fecf
023b
01b0
0210
01f6
0119
000b
0124
00ca
fac6
fee3
fe1f
ff3e
031a
0122
ffb1
0076
ff5d
024b
00aa
01d5
fe66
01fc
ffe3
0200
002e
0174
ff46
017c
fef3
0271
ffe2
0155
0124
00b5
fd0a
ff22
01ab
fd3a
0220
ffe5
00b8
fd4f
ff05
fe83
ffb6
01e2
026b
fe05
027f
0077
fe5b
fe1e
03fa
0131
01d3
0120
feab
01b0
009a
0192
02c5
fe5f
ff31
02d7
000e
01ac
02bf
0105
02b3
fedb
0047
015c
008c
012b
fdd8
fe11
0225
ff03
fefd
fce4
023e
ffe3
01fe
021c
fe99
01f3
fd1d
0280
ff52
ff24
0295
fd91
fe62
0281
01cb
ff3d
017b
ffbe
ffeb
0239
ff10
fbd3
fdf0
ff0c
00e6
012d
ff08
ff1e
fcbd
fe1f
02dc
02ee
018d
fe50
ffa8
fbd8
026d
01e3
0084
fdf4
02a0
0264
0144
002a
030c
fea3
02c3
ff79
fec0
ff80
fe6b
fd8b
0075
ff7d
fe35
02f6
fe38
0493
fe62
ff4c
018c
00ae
010b
00c1
fe2e
fd9d
ff64
004f
0124
ff97
023c
0130
0177
017d
0273
ff80
00c0
0040
fe13
02b9
ff6e
02ce
0083
0184
fd99
feb7
0146
fec8
01eb
03ba
0038
ff04
0281
ffbd
fc9d
fec8
00b4
0232
0187
fc34
010e
ffd0
fff0
fd14
0101
ff5b
ffc8
fde7
feb0
004e
ff40
fee5
00b4
ff87
045a
ffb1
04ac
fe85
0028
0146
ff89
fe1d
fda1
fd9d
fe98
028a
fffa
01f3
03aa
01ea
fdbe
024f
fe65
01eb
012a
00a4
0167
007f
0182
fdc4
0032
0104
01fd
0232
ff25
014e
ff1e
0231
005d
fe49
0068
fd23
fdd6
0279
039d
fe88
fe79
fe85
fd7d
015c
00d2
035d
014d
044f
ffbd
024b
01cd
01dd
fedd
0043
009a
02d0
0123
ff9b
fe44
ff52
01df
023b
fd2c
fe74
fb17
ffee
ff5f
ff15
fccf
0165
0282
03cd
023a
0065
fff4
046a
00bd
01f9
0155
fa7d
0100
0043
fd60
0239
ff2a
fefd
fdf6
014a
fd95
ff3f
fe96
01d9
0026
018d
fe0b
00db
ffe8
0231
008f
0139
017a
00d5
0289
fcaa
00ea
021f
fcdf
fd62
01e7
ffe2
feb5
fd04
0128
ffb8
01d0
fee2
fec8
ffe8
01e5
ff2a
00d5
fee8
fe99
0058
0185
022e
02f5
fd1a
043b
ffb7
ff54
fe51
ff39
01b5
0403
fdd0
0097
0264
0190
0091
02d2
fe07
ff40
fabd
0198
013e
ff97
028d
fd28
fe47
0031
001e
0003
ff5e
0150
01be
ffc7
000f
0142
ffe1
0081
fd8d
ff52
ffb6
02d0
fdb4
0074
0081
012a
ffe4
feb7
fff9
0288
0306
fe7c
fc11
0184
fee6
fef5
00ec
0244
fffb
fe96
0328
03a5
ffce
031d
fef2
fc0a
0130
ffda
00cc
01c2
00e8
002f
ffac
054b
00f9
fca2
ff09
fd88
ffd0
0151
fe3a
014b
ff6e
02d8
0238
00c7
019d
0017
0258
0458
fd76
057d
fd20
ffc0
fe7c
0167
fef5
0181
009d
0329
fe06
0006
fd34
fe8d
fbe4
fdf2
fd38
00a2
0496
fe5b
fd41
ffb8
0401
0026
0082
fee1
03d8
00bc
fd42
00c9
ff25
00cc
011c
ff53
036d
02de
0030
00a8
019f
01da
fce9
ff48
ff50
ff65
0103
0058
fda4
02cd
0330
ff66
003d
00df
fcb7
02cf
0286
006f
fd66
fdd1
fdce
02f5
0291
fce7
01c3
012c
fed4
fc15
feab
005a
0122
0291
0099
ff39
0212
ff26
ff20
0172
ffe5
0277
fd5c
fed0
0169
027a
02c9
0007
01b2
fbe2
0373
0000
0370
0247
fc51
ff64
01ee
fe32
022f
0181
fda4
01ae
0079
01ac
ff2f
ff65
fe9d
fe96
0064
0245
0150
ffc3
01ea
0264
00dc
fd2c
fd7b
0399
ffd9
0228
0244
0127
ff97
fe78
026c
fec0
fc96
017f
0164
ff40
fef5
0186
01e3
ffd0
ff57
ff4b
00ee
031e
013d
021e
03d8
fd41
fef2
0346
fdbb
0133
ff11
00b7
fcf6
0203
feb0
0267
ffa1
fddc
ffdb
01e3
011a
0290
01fc
0071
013c
0035
fe3c
ff55
00a5
00b9
01fe
feef
fe97
0362
004a
fefb
ff06
00e3
0389
00be
0004
02e8
00b3
016e
fb16
fd6f
0137
fd55
0068
fed1
fdaf
fdb5
fe48
0315
fe2e
fe1e
009a
fd86
019a
ffe8
0067
feb9
0052
031f
0162
015f
024c
01e1
feba
fdb4
ffbe
fffe
01fc
0283
0346
003a
fe13
fdc8
012a
025c
013f
021b
fae4
feb8
fe95
ff95
0513
0012
ff70
0277
0040
01dc
ffd3
00ce
0191
011d
006f
01ef
0240
fd83
0012
01fc
feb9
031f
015d
ffe2
ffe6
04ef
fe5f
fed0
ffe8
fe20
ff02
ffd3
f9d2
0366
ff11
fe4a
00c7
0167
0195
022c
0094
fdd4
fff9
fea8
00ba
00ef
01e6
015d
005b
0111
fcf5
0191
fedd
024f
fed5
00a6
02c5
fed3
ffa3
00d0
ff95
ffa7
ff4f
fe90
0190
00c7
0377
0156
0255
ff10
01dc
018b
03fe
00b6
015e
0014
0061
0119
ffd6
02fb
009e
01ae
0043
fd7e
ff8d
fc16
013c
030a
00fb
fe85
0315
0433
01ef
fe76
fe09
ff35
02de
fd89
feb3
006c
fb06
01fc
01f7
fcd7
005e
fe84
019f
01a5
0197
fe6f
ff82
fecc
ff4c
01bb
019e
025a
02a0
fe4f
0402
022e
ff3c
